{
  "version": "1.0",
  "truncation": null,
  "padding": null,
  "added_tokens": [
    {
      "id": 0,
      "content": "<unk>",
      "single_word": false,
      "lstrip": false,
      "rstrip": false,
      "normalized": false,
      "special": true
    }
  ],
  "normalizer": null,
  "pre_tokenizer": {
    "type": "ByteLevel",
    "add_prefix_space": false,
    "trim_offsets": true,
    "use_regex": true
  },
  "post_processor": null,
  "decoder": null,
  "model": {
    "type": "BPE",
    "dropout": null,
    "unk_token": "<unk>",
    "continuing_subword_prefix": null,
    "end_of_word_suffix": null,
    "fuse_unk": false,
    "byte_fallback": false,
    "ignore_merges": false,
    "vocab": {
      "<unk>": 0,
      "!": 1,
      "\"": 2,
      "#": 3,
      "$": 4,
      "%": 5,
      "&": 6,
      "'": 7,
      "(": 8,
      ")": 9,
      "*": 10,
      "+": 11,
      ",": 12,
      "-": 13,
      ".": 14,
      "/": 15,
      "0": 16,
      "1": 17,
      "2": 18,
      "3": 19,
      "4": 20,
      "5": 21,
      "6": 22,
      "7": 23,
      "8": 24,
      "9": 25,
      ":": 26,
      ";": 27,
      "<": 28,
      "=": 29,
      ">": 30,
      "?": 31,
      "@": 32,
      "A": 33,
      "B": 34,
      "C": 35,
      "D": 36,
      "E": 37,
      "F": 38,
      "G": 39,
      "H": 40,
      "I": 41,
      "J": 42,
      "K": 43,
      "L": 44,
      "M": 45,
      "N": 46,
      "O": 47,
      "P": 48,
      "Q": 49,
      "R": 50,
      "S": 51,
      "T": 52,
      "U": 53,
      "V": 54,
      "W": 55,
      "X": 56,
      "Y": 57,
      "Z": 58,
      "[": 59,
      "\\": 60,
      "]": 61,
      "^": 62,
      "_": 63,
      "`": 64,
      "a": 65,
      "b": 66,
      "c": 67,
      "d": 68,
      "e": 69,
      "f": 70,
      "g": 71,
      "h": 72,
      "i": 73,
      "j": 74,
      "k": 75,
      "l": 76,
      "m": 77,
      "n": 78,
      "o": 79,
      "p": 80,
      "q": 81,
      "r": 82,
      "s": 83,
      "t": 84,
      "u": 85,
      "v": 86,
      "w": 87,
      "x": 88,
      "y": 89,
      "z": 90,
      "{": 91,
      "|": 92,
      "}": 93,
      "~": 94,
      "¡": 95,
      "¢": 96,
      "£": 97,
      "¤": 98,
      "¥": 99,
      "¦": 100,
      "§": 101,
      "¨": 102,
      "©": 103,
      "ª": 104,
      "«": 105,
      "¬": 106,
      "®": 107,
      "¯": 108,
      "°": 109,
      "±": 110,
      "²": 111,
      "³": 112,
      "´": 113,
      "µ": 114,
      "¶": 115,
      "·": 116,
      "¸": 117,
      "¹": 118,
      "º": 119,
      "»": 120,
      "¼": 121,
      "½": 122,
      "¾": 123,
      "¿": 124,
      "À": 125,
      "Á": 126,
      "Â": 127,
      "Ã": 128,
      "Ä": 129,
      "Å": 130,
      "Æ": 131,
      "Ç": 132,
      "È": 133,
      "É": 134,
      "Ê": 135,
      "Ë": 136,
      "Ì": 137,
      "Í": 138,
      "Î": 139,
      "Ï": 140,
      "Ð": 141,
      "Ñ": 142,
      "Ò": 143,
      "Ó": 144,
      "Ô": 145,
      "Õ": 146,
      "Ö": 147,
      "×": 148,
      "Ø": 149,
      "Ù": 150,
      "Ú": 151,
      "Û": 152,
      "Ü": 153,
      "Ý": 154,
      "Þ": 155,
      "ß": 156,
      "à": 157,
      "á": 158,
      "â": 159,
      "ã": 160,
      "ä": 161,
      "å": 162,
      "æ": 163,
      "ç": 164,
      "è": 165,
      "é": 166,
      "ê": 167,
      "ë": 168,
      "ì": 169,
      "í": 170,
      "î": 171,
      "ï": 172,
      "ð": 173,
      "ñ": 174,
      "ò": 175,
      "ó": 176,
      "ô": 177,
      "õ": 178,
      "ö": 179,
      "÷": 180,
      "ø": 181,
      "ù": 182,
      "ú": 183,
      "û": 184,
      "ü": 185,
      "ý": 186,
      "þ": 187,
      "ÿ": 188,
      "Ā": 189,
      "ā": 190,
      "Ă": 191,
      "ă": 192,
      "Ą": 193,
      "ą": 194,
      "Ć": 195,
      "ć": 196,
      "Ĉ": 197,
      "ĉ": 198,
      "Ċ": 199,
      "ċ": 200,
      "Č": 201,
      "č": 202,
      "Ď": 203,
      "ď": 204,
      "Đ": 205,
      "đ": 206,
      "Ē": 207,
      "ē": 208,
      "Ĕ": 209,
      "ĕ": 210,
      "Ė": 211,
      "ė": 212,
      "Ę": 213,
      "ę": 214,
      "Ě": 215,
      "ě": 216,
      "Ĝ": 217,
      "ĝ": 218,
      "Ğ": 219,
      "ğ": 220,
      "Ġ": 221,
      "ġ": 222,
      "Ģ": 223,
      "ģ": 224,
      "Ĥ": 225,
      "ĥ": 226,
      "Ħ": 227,
      "ħ": 228,
      "Ĩ": 229,
      "ĩ": 230,
      "Ī": 231,
      "ī": 232,
      "Ĭ": 233,
      "ĭ": 234,
      "Į": 235,
      "į": 236,
      "İ": 237,
      "ı": 238,
      "Ĳ": 239,
      "ĳ": 240,
      "Ĵ": 241,
      "ĵ": 242,
      "Ķ": 243,
      "ķ": 244,
      "ĸ": 245,
      "Ĺ": 246,
      "ĺ": 247,
      "Ļ": 248,
      "ļ": 249,
      "Ľ": 250,
      "ľ": 251,
      "Ŀ": 252,
      "ŀ": 253,
      "Ł": 254,
      "ł": 255,
      "Ń": 256,
      "ãģ": 257,
      "ãĤ": 258,
      "th": 259,
      "ãĥ": 260,
      "ãĢ": 261,
      "Ġth": 262,
      "ãĢģ": 263,
      "Ġa": 264,
      "Ġthe": 265,
      "Ġs": 266,
      "nd": 267,
      "Ġh": 268,
      "er": 269,
      "ou": 270,
      "in": 271,
      "Ġw": 272,
      "Ġm": 273,
      "Ġb": 274,
      "Ġo": 275,
      "ãĤĴ": 276,
      "ãĢĤ": 277,
      "re": 278,
      "èª": 279,
      "ãģ¯": 280,
      "ãģĻ": 281,
      "is": 282,
      "Ġt": 283,
      "en": 284,
      "ll": 285,
      "Ġf": 286,
      "ãģ®": 287,
      "ãģĹ": 288,
      "or": 289,
      "on": 290,
      "at": 291,
      "Ġand": 292,
      "Ġof": 293,
      "es": 294,
      "ãģ¾": 295,
      "ãģ¾ãģĻ": 296,
      "Ġc": 297,
      "Ġd": 298,
      "èªŀ": 299,
      "ãĥ¼": 300,
      "ãģĦ": 301,
      "ãģ§": 302,
      "ar": 303,
      "ĢĻ": 304,
      "Ġn": 305,
      "Ġl": 306,
      "an": 307,
      "Ġp": 308,
      "ed": 309,
      "Ġto": 310,
      "Ġy": 311,
      "æĸ": 312,
      "æĹ": 313,
      "æľ": 314,
      "ãĤ¹": 315,
      "æĹ¥": 316,
      "ãĥ¼ãĤ": 317,
      "ıãģ": 318,
      "ĠI": 319,
      "el": 320,
      "âĢĻ": 321,
      "it": 322,
      "ing": 323,
      "om": 324,
      "Ġyou": 325,
      "st": 326,
      "Ġin": 327,
      "ãģ¨": 328,
      "æľ¬": 329,
      "ãĥĩ": 330,
      "æĸĩ": 331,
      "ãģª": 332,
      "ãĤ¤": 333,
      "ķä": 334,
      "ãģĹãģ¾ãģĻ": 335,
      "le": 336,
      "Ġg": 337,
      "Ġwi": 338,
      "ve": 339,
      "Ġbe": 340,
      "ow": 341,
      "Ġsh": 342,
      "Th": 343,
      "Ġha": 344,
      "Ġhe": 345,
      "Ġu": 346,
      "Ġ2": 347,
      "Ġno": 348,
      "od": 349,
      "ch": 350,
      "al": 351,
      "And": 352,
      "ay": 353,
      "ãģ¦": 354,
      "ãģķ": 355,
      "··": 356,
      "æ··": 357,
      "è¨": 358,
      "ä¸": 359,
      "åĲ": 360,
      "åŃ": 361,
      "èĦ": 362,
      "ãĤī": 363,
      "ãĥĪ": 364,
      "åĲĪ": 365,
      "èĦĪ": 366,
      "¾¡": 367,
      "åĪ": 368,
      "è©": 369,
      "éĩ": 370,
      "æľ¬èªŀ": 371,
      "ãĥ¼ãĤ¿": 372,
      "ãģĹãģ¦": 373,
      "ķä¾¡": 374,
      "è©ķä¾¡": 375,
      "æĸĩèĦĪ": 376,
      "æĹ¥æľ¬èªŀ": 377,
      "ãĥĩãĥ¼ãĤ¿": 378,
      "ce": 379,
      "im": 380,
      "Ġthat": 381,
      "Ġwh": 382,
      "te": 383,
      "ld": 384,
      "se": 385,
      "ir": 386,
      "all": 387,
      "gh": 388,
      "Ġmy": 389,
      "et": 390,
      "nt": 391,
      "oc": 392,
      "Ġfor": 393,
      "ut": 394,
      "id": 395,
      "Ġis": 396,
      "Ġe": 397,
      "as": 398,
      "Ġme": 399,
      "PE": 400,
      "Ġnot": 401,
      "Ġwith": 402,
      "ere": 403,
      "Ġhis": 404,
      "ke": 405,
      "ĠB": 406,
      "48": 407,
      "Ġ20": 408,
      "ãĤ«": 409,
      "èªŃ": 410,
      "½Ļ": 411,
      "å½Ļ": 412,
      "çĶ": 413,
      "èĭ": 414,
      "éĢ": 415,
      "ãģĳ": 416,
      "ãĥ¢": 417,
      "ãĥ«": 418,
      "ãĥĨ": 419,
      "åŃĹ": 420,
      "èĭ±": 421,
      "ãģ¿": 422,
      "ãģĭ": 423,
      "ãģĵ": 424,
      "ãĤĮ": 425,
      "ãĥĳ": 426,
      "ãĥŃ": 427,
      "ä¸Ĭ": 428,
      "æ®": 429,
      "çļ": 430,
      "ãĥ©": 431,
      "ãĥ³": 432,
      "çļĦ": 433,
      "ĹãĤĴ": 434,
      "ãĤ¹ãĥĪ": 435,
      "Ġ2048": 436,
      "èªŀå½Ļ": 437,
      "ãĥ©ãĤ¤": 438,
      "æ··åĲĪ": 439,
      "ãģ§ãģĻ": 440,
      "ãģĭãĤī": 441,
      "ªãģ§": 442,
      "ıãģł": 443,
      "ãģ¨ãģĹãģ¦": 444,
      "ªãģ§ãģ¯": 445,
      "am": 446,
      "ĠM": 447,
      "ĠĠ": 448,
      "ad": 449,
      "Ġit": 450,
      "ent": 451,
      "our": 452,
      "ri": 453,
      "Ġby": 454,
      "ac": 455,
      "ther": 456,
      "ght": 457,
      "Ġhim": 458,
      "Ġthou": 459,
      "Wh": 460,
      "ver": 461,
      "ep": 462,
      "ab": 463,
      "Ġshall": 464,
      "ĠAnd": 465,
      "ra": 466,
      "ĠL": 467,
      "ro": 468,
      "and": 469,
      "ai": 470,
      "ore": 471,
      "Ġk": 472,
      "Ġre": 473,
      "ea": 474,
      "Ġst": 475,
      "Ġon": 476,
      "ord": 477,
      "Ġyour": 478,
      "ur": 479,
      "ain": 480,
      "Ġas": 481,
      "us": 482,
      "Ġhave": 483,
      "ome": 484,
      "Ġli": 485,
      "ĠS": 486,
      "ĠA": 487,
      "est": 488,
      "Ġthis": 489,
      "Ġdo": 490,
      "Ġall": 491,
      "Ġ1": 492,
      "ion": 493,
      "Ġthy": 494,
      "Ġwill": 495,
      "ly": 496,
      "The": 497,
      "OR": 498,
      "Ġwe": 499,
      "ess": 500,
      "¿½": 501,
      "Ġgo": 502,
      "AS": 503,
      "CI": 504,
      "Ġan": 505,
      "nto": 506,
      "ĠG": 507,
      "Ġso": 508,
      "xt": 509,
      "28": 510,
      "UT": 511,
      "con": 512,
      "ould": 513,
      "Ġthem": 514,
      "vel": 515,
      "AI": 516,
      "loc": 517,
      "Ġthey": 518,
      "Ġher": 519,
      "gen": 520,
      "Ġlo": 521,
      "Ġunto": 522,
      "Ġse": 523,
      "Ġ6": 524,
      "Ġup": 525,
      "ake": 526,
      "ich": 527,
      "ĠMac": 528,
      "ear": 529,
      "voc": 530,
      "Ġ25": 531,
      "mod": 532,
      "epth": 533,
      "conte": 534,
      "ãģı": 535,
      "ãĤ¿": 536,
      "CII": 537,
      "ãģĽ": 538,
      "éĩı": 539,
      "vocab": 540,
      "BPE": 541,
      "¤ľ": 542,
      "¸¬": 543,
      "æ¤ľ": 544,
      "æ¸¬": 545,
      "ãĤĤ": 546,
      "æĸ¹": 547,
      "UTF": 548,
      "¢ĥ": 549,
      "«ł": 550,
      "¬¡": 551,
      "¯¾": 552,
      "µĦ": 553,
      "¶ļ": 554,
      "ºĪ": 555,
      "»Ĭ": 556,
      "¼¢": 557,
      "¿ľ": 558,
      "äºĪ": 559,
      "ä»Ĭ": 560,
      "å°": 561,
      "åĭ": 562,
      "åĮ": 563,
      "åı": 564,
      "åķ": 565,
      "åľ": 566,
      "å¢ĥ": 567,
      "å¯¾": 568,
      "å¿ľ": 569,
      "æĪ": 570,
      "æķ": 571,
      "æ¬¡": 572,
      "æ¼¢": 573,
      "ç®": 574,
      "çĤ": 575,
      "çı": 576,
      "çĴ": 577,
      "çĽ": 578,
      "çŁ": 579,
      "ç«ł": 580,
      "çµĦ": 581,
      "ç¶ļ": 582,
      "èī": 583,
      "Ġä¸Ĭ": 584,
      "ãģ²": 585,
      "ãģĮ": 586,
      "ãĤ³": 587,
      "ãĥĬ": 588,
      "ãĥĲ": 589,
      "èªį": 590,
      "è¨¼": 591,
      "è¨Ī": 592,
      "è¨ĵ": 593,
      "ä¸¡": 594,
      "çĶ¨": 595,
      "çĶŁ": 596,
      "éĢ²": 597,
      "éĢļ": 598,
      "åĮĸ": 599,
      "åı¥": 600,
      "åķı": 601,
      "åľ¨": 602,
      "æĪĲ": 603,
      "æķ°": 604,
      "çĤ¹": 605,
      "çı¾": 606,
      "çĴ°": 607,
      "çĽ®": 608,
      "çŁŃ": 609,
      "èī¯": 610,
      "¡Į": 611,
      "¢º": 612,
      "£ľ": 613,
      "¦ĸ": 614,
      "®ļ": 615,
      "·´": 616,
      "»¸": 617,
      "¼Ŀ": 618,
      "½ľ": 619,
      "ä¼Ŀ": 620,
      "åĨ": 621,
      "åĬ": 622,
      "åį": 623,
      "åĵ": 624,
      "åĸ": 625,
      "åĽ": 626,
      "åĢĻ": 627,
      "å®ļ": 628,
      "æĢ": 629,
      "æī": 630,
      "æĶ": 631,
      "çķ": 632,
      "çĸ": 633,
      "ç¢º": 634,
      "ç·´": 635,
      "è³": 636,
      "è¿½": 637,
      "è£ľ": 638,
      "è¦ĸ": 639,
      "è»¸": 640,
      "éģ": 641,
      "éķ": 642,
      "éļ": 643,
      "é¡Į": 644,
      "Ġãģ¯": 645,
      "ãģ«": 646,
      "ãĤ°": 647,
      "ãĤ·": 648,
      "ãĤ»": 649,
      "ãĤŃ": 650,
      "ãĥ¥": 651,
      "ãĥĥ": 652,
      "ãĥı": 653,
      "ãĥĹ": 654,
      "æľĢ": 655,
      "åŃĲ": 656,
      "åĪĨ": 657,
      "åĪĿ": 658,
      "éĩį": 659,
      "ĠBPE": 660,
      "æ®µ": 661,
      "æ®ĭ": 662,
      "ASCII": 663,
      "åĨį": 664,
      "åĬł": 665,
      "åįģ": 666,
      "åĵģ": 667,
      "åĸĦ": 668,
      "åĽº": 669,
      "æĢ§": 670,
      "æī±": 671,
      "æĶ¹": 672,
      "çĸİ": 673,
      "éģº": 674,
      "éķ·": 675,
      "éļİ": 676,
      "ãģ®æ¤ľ": 677,
      "ãģ®ä¸¡": 678,
      "æĹ¥ãģ¯": 679,
      "åĪĹãĤĴ": 680,
      "èªŃãģ¿": 681,
      "èĭ±èªŀ": 682,
      "Ġ128": 683,
      "AIãģ¯": 684,
      "Ġ256": 685,
      "æĸ¹ãĤĴ": 686,
      "äºĪæ¸¬": 687,
      "ç¶ļãģĳ": 688,
      "depth": 689,
      "¯ãĥĨ": 690,
      "ãĤĴæ··": 691,
      "ãĤĴçĽ®": 692,
      "ãĤĴåįģ": 693,
      "ãģ¯å°": 694,
      "ãģ®ãĤ¹": 695,
      "ãģ®æĸĩ": 696,
      "ãģ®ãģª": 697,
      "ãģ®ãĥĲ": 698,
      "ãĥ¼ãĥĳ": 699,
      "ãģĦçµĦ": 700,
      "ãģ§åĭ": 701,
      "ãģ§éĢ²": 702,
      "ãĥĩãĥ«": 703,
      "ãĤ¤ãĥĪ": 704,
      "ãĥĨãĤŃ": 705,
      "ãģ¿åĲĪ": 706,
      "ãģĵãĤĮ": 707,
      "ãĥ³ãģ®": 708,
      "local": 709,
      "genai": 710,
      "ãĤ¿ãĤ«": 711,
      "å¯¾å¿ľ": 712,
      "ç®ĹãĤĴ": 713,
      "ç«łãģ¯": 714,
      "ãģ²ãĤī": 715,
      "ãģĮãģª": 716,
      "è¨ĵç·´": 717,
      "çĶ¨ãĤ³": 718,
      "åĮĸè¨Ī": 719,
      "åı¥èªŃ": 720,
      "åķıé¡Į": 721,
      "åľ¨ãģķ": 722,
      "æķ°åŃĹ": 723,
      "çĴ°å¢ĥ": 724,
      "ç¢ºèªį": 725,
      "åĨįçı¾": 726,
      "æī±ãģĦ": 727,
      "çĸİéĢļ": 728,
      "ãĤıãģ": 729,
      "ãĤĴæ®ĭ": 730,
      "ãĤ¹ä¸Ĭ": 731,
      "ãģªãģı": 732,
      "ãĤ¤ãĥĹ": 733,
      "level": 734,
      "ãģķãĤĮ": 735,
      "éĩıãģł": 736,
      "ãģĳè¿½": 737,
      "çļĦãģ«": 738,
      "Ġbyte": 739,
      "model": 740,
      "½ľãģĹ": 741,
      "åĢĻè£ľ": 742,
      "è»¸ãĤĴ": 743,
      "ãĤ°ãĤĴ": 744,
      "ãĤ·ãĥ¥": 745,
      "ãĤ»ãĥ³": 746,
      "ãĥıãĥĥ": 747,
      "åĪĨãģª": 748,
      "åĪĿãģ®": 749,
      "éĩįè¦ĸ": 750,
      "æ®µéļİ": 751,
      "åĵģè³": 752,
      "åĽºå®ļ": 753,
      "æĶ¹åĸĦ": 754,
      "éģºä¼Ŀ": 755,
      "ãĤıãģĽ": 756,
      "ãģıãģ": 757,
      "æ¼¢åŃĹ": 758,
      "æĪĲAIãģ¯": 759,
      "ãģıãģ¦": 760,
      "ãĥ¼ãĤ«": 761,
      "ıãģķ": 762,
      "context": 763,
      "çŁŃãģĦ": 764,
      "Ġãģ§ãģĻ": 765,
      "ãģıãģł": 766,
      "æľ¬çķ": 767,
      "ãģķãģĦ": 768,
      "èĭ±æĹ¥": 769,
      "æ··åĲĪUTF": 770,
      "èĭ±èªŀãģ¨": 771,
      "ãģıãģ¦ãĤĤ": 772,
      "ãĥ¼ãĤ¯ãĥĨ": 773,
      "æĸĩèĦĪãĤĴ": 774,
      "èªŀå½Ļãģ¨": 775,
      "ãģĽãģ¾ãģĻ": 776,
      "ä»ĬæĹ¥ãģ¯": 777,
      "Ġä¸Ĭãģ§åĭ": 778,
      "èī¯ãģĦçµĦ": 779,
      "ãģ®æ¤ľè¨¼": 780,
      "ãģ®ãĤ¹ãĥ¢": 781,
      "ãģ®ãģªãģĦ": 782,
      "ãģĵãĤĮãģ¯": 783,
      "ãģĦãģ¾ãģĻ": 784,
      "ãĤ¹ãģ§ãģĻ": 785,
      "ķä½ľãģĹ": 786,
      "ãĤ«ãĤ¿ãĤ«": 787,
      "ãĥ¢ãĥĩãĥ«": 788,
      "ãĥ«çĴ°å¢ĥ": 789,
      "ãģĵãģ®æĸĩ": 790,
      "ãĥŃãĥ¼ãĤ«": 791,
      "ãģĭãĤīæ¬¡": 792,
      "ãĤĴçĽ®çļĦ": 793,
      "ãģ¯å°ıãģķ": 794,
      "åı¥èªŃçĤ¹": 795,
      "åĨįçı¾æĢ§": 796,
      "è©ķä¾¡ãĥŃ": 797,
      "æĸĩèĦĪéķ·": 798,
      "ãĥĳãĤ¤ãĥĹ": 799,
      "æľĢåĪĿãģ®": 800,
      "åĬłãģĹãģ¦": 801,
      "ãģ®ä¸¡æĸ¹ãĤĴ": 802,
      "åĪĹãĤĴäºĪæ¸¬": 803,
      "åĢĻè£ľãģ¯": 804,
      "éģºä¼ĿåŃĲ": 805,
      "ãĤ¹ãĥĪãĤĴåįģ": 806,
      "çĶŁæĪĲAIãģ¯": 807,
      "ASCIIãĤĴæ··": 808,
      "ãĥ³ãģ®çĸİéĢļ": 809,
      "ç®ĹãĤĴç¶ļãģĳ": 810,
      "ç«łãģ¯è¨ĵç·´": 811,
      "ãģ²ãĤīãģĮãģª": 812,
      "ãĤ¹ãĥĪçĶ¨ãĤ³": 813,
      "ãģ®ãĥĲãĤ¤ãĥĪ": 814,
      "ãģ§éĢ²åĮĸè¨Ī": 815,
      "ãģ¿åĲĪãĤıãģĽ": 816,
      "ãĤ¹ä¸Ĭåķıé¡Į": 817,
      "ãģķãĤĮãģ¾ãģĻ": 818,
      "çļĦãģ«æĶ¹åĸĦ": 819,
      "ãĤ°ãĤĴéĩįè¦ĸ": 820,
      "è©ķä¾¡è»¸ãĤĴ": 821,
      "ãĥ©ãĤ¤ãĤ»ãĥ³": 822,
      "ãģĭãĤīæ®µéļİ": 823,
      "éĩıãģłãģĳè¿½": 824,
      "ãĤ·ãĥ¥åĽºå®ļ": 825,
      "åĵģè³ªãģ§ãģ¯": 826,
      "çŁŃãģĦæĸĩèĦĪ": 827,
      "ãĤ«ãĤ¿ãĤ«ãĥĬ": 828,
      "æĹ¥æľ¬èªŀå¯¾å¿ľ": 829,
      "ãĥĩãĥ¼ãĤ¿éĩı": 830,
      "ãģ¨ãģĹãģ¦æī±ãģĦ": 831,
      "åľ¨ãģķãģĽãģ¾ãģĻ": 832,
      "ãģıãģłãģķãģĦ": 833,
      "æľ¬çķªãģ§ãģ¯": 834,
      "èĭ±æĹ¥æ··åĲĪ": 835,
      "æĹ¥æľ¬èªŀãĥĨãĤŃ": 836,
      "ç¢ºèªįãĤĴçĽ®çļĦ": 837,
      "æĸĩèĦĪãĤĴè©ķä¾¡": 838,
      "Ġä¸Ĭãģ§åĭķä½ľãģĹ": 839,
      "ãĥ¼ãĥĳãĤ¹ãģ§ãģĻ": 840,
      "èĭ±èªŀãģ¨æĹ¥æľ¬èªŀ": 841,
      "ãģ®ä¸¡æĸ¹ãĤĴèªŃãģ¿": 842,
      "ãĤĴæ®ĭãģĹãģ¾ãģĻ": 843,
      "ãģ®ãĤ¹ãĥ¢ãĥ¼ãĤ¯ãĥĨ": 844,
      "ãģ¯å°ıãģķãģıãģ¦ãĤĤ": 845,
      "ãĥĳãĤ¤ãĥĹãĥ©ãĤ¤": 846,
      "ãĤ¹ãĥĪãĤĴåįģåĪĨãģª": 847,
      "ãĥĩãĥ¼ãĤ¿ãģ®æ¤ľè¨¼": 848,
      "èªŀå½Ļãģ¨æ··åĲĪUTF": 849,
      "ãĥŃãĥ¼ãĤ«ãĥ«çĴ°å¢ĥ": 850,
      "ãģ¨ãģĹãģ¦ãģĦãģ¾ãģĻ": 851,
      "ãĥıãĥĥãĤ·ãĥ¥åĽºå®ļ": 852,
      "åĵģè³ªãģ§ãģ¯ãģªãģı": 853,
      "åĪĹãĤĴäºĪæ¸¬ãģĹãģ¾ãģĻ": 854,
      "èī¯ãģĦçµĦãģ¿åĲĪãĤıãģĽ": 855,
      "ãģĵãģ®æĸĩç«łãģ¯è¨ĵç·´": 856,
      "æľĢåĪĿãģ®åĢĻè£ľãģ¯": 857,
      "ãĤ¹ä¸Ĭåķıé¡Įãģ®ãģªãģĦ": 858,
      "ãĤ°ãĤĴéĩįè¦ĸãģĹãģ¾ãģĻ": 859,
      "ãģĵãĤĮãģ¯æĹ¥æľ¬èªŀå¯¾å¿ľ": 860,
      "ãģĭãĤīæ¬¡ãģ®ãĥĲãĤ¤ãĥĪ": 861,
      "ãĥĩãĥ¼ãĤ¿ãģĭãĤīæ®µéļİ": 862,
      "åĬłãģĹãģ¦ãģıãģłãģķãģĦ": 863,
      "éģºä¼ĿåŃĲãģ¨ãģĹãģ¦æī±ãģĦ": 864,
      "çļĦãģ«æĶ¹åĸĦãģķãĤĮãģ¾ãģĻ": 865,
      "ãģ§éĢ²åĮĸè¨Īç®ĹãĤĴç¶ļãģĳ": 866,
      "ASCIIãĤĴæ··åľ¨ãģķãģĽãģ¾ãģĻ": 867,
      "æĸĩèĦĪãĤĴè©ķä¾¡ãģĹãģ¾ãģĻ": 868,
      "ãĥ³ãģ®çĸİéĢļç¢ºèªįãĤĴçĽ®çļĦ": 869,
      "Ġthee": 870,
      "ãĥ¢ãĥĩãĥ«ãģ¯å°ıãģķãģıãģ¦ãĤĤ": 871,
      "ä»ĬæĹ¥ãģ¯ãĥŃãĥ¼ãĤ«ãĥ«çĴ°å¢ĥ": 872,
      "çĶŁæĪĲAIãģ¯èĭ±èªŀãģ¨æĹ¥æľ¬èªŀ": 873,
      "ãĤ¹ãĥĪçĶ¨ãĤ³ãĥ¼ãĥĳãĤ¹ãģ§ãģĻ": 874,
      "ãĤ¹ãĥĪãĤĴåįģåĪĨãģªéĩıãģłãģĳè¿½": 875,
      "è©ķä¾¡ãĥŃãĤ°ãĤĴéĩįè¦ĸãģĹãģ¾ãģĻ": 876,
      "ãĥ©ãĤ¤ãĤ»ãĥ³ãĤ¹ä¸Ĭåķıé¡Įãģ®ãģªãģĦ": 877,
      "çŁŃãģĦæĸĩèĦĪãģĭãĤīæ¬¡ãģ®ãĥĲãĤ¤ãĥĪ": 878,
      "è©ķä¾¡è»¸ãĤĴéģºä¼ĿåŃĲãģ¨ãģĹãģ¦æī±ãģĦ": 879,
      "èĭ±æĹ¥æ··åĲĪãĥĩãĥ¼ãĤ¿ãģĭãĤīæ®µéļİ": 880,
      "èī¯ãģĦçµĦãģ¿åĲĪãĤıãģĽãĤĴæ®ĭãģĹãģ¾ãģĻ": 881,
      "ãģĵãĤĮãģ¯æĹ¥æľ¬èªŀå¯¾å¿ľãģ®ãĤ¹ãĥ¢ãĥ¼ãĤ¯ãĥĨ": 882,
      "ãģĵãģ®æĸĩç«łãģ¯è¨ĵç·´åĵģè³ªãģ§ãģ¯ãģªãģı": 883,
      "ãĥĳãĤ¤ãĥĹãĥ©ãĤ¤ãĥ³ãģ®çĸİéĢļç¢ºèªįãĤĴçĽ®çļĦ": 884,
      "çĶŁæĪĲAIãģ¯èĭ±èªŀãģ¨æĹ¥æľ¬èªŀãģ®ä¸¡æĸ¹ãĤĴèªŃãģ¿": 885,
      "æĹ¥æľ¬èªŀãĥĨãĤŃãĤ¹ãĥĪãĤĴåįģåĪĨãģªéĩıãģłãģĳè¿½": 886,
      "ä»ĬæĹ¥ãģ¯ãĥŃãĥ¼ãĤ«ãĥ«çĴ°å¢ĥãģ§éĢ²åĮĸè¨Īç®ĹãĤĴç¶ļãģĳ": 887,
      "çŁŃãģĦæĸĩèĦĪãģĭãĤīæ¬¡ãģ®ãĥĲãĤ¤ãĥĪåĪĹãĤĴäºĪæ¸¬ãģĹãģ¾ãģĻ": 888,
      "èĭ±æĹ¥æ··åĲĪãĥĩãĥ¼ãĤ¿ãģĭãĤīæ®µéļİçļĦãģ«æĶ¹åĸĦãģķãĤĮãģ¾ãģĻ": 889,
      "ãĥĳãĤ¤ãĥĹãĥ©ãĤ¤ãĥ³ãģ®çĸİéĢļç¢ºèªįãĤĴçĽ®çļĦãģ¨ãģĹãģ¦ãģĦãģ¾ãģĻ": 890,
      "ãģĵãĤĮãģ¯æĹ¥æľ¬èªŀå¯¾å¿ľãģ®ãĤ¹ãĥ¢ãĥ¼ãĤ¯ãĥĨãĤ¹ãĥĪçĶ¨ãĤ³ãĥ¼ãĥĳãĤ¹ãģ§ãģĻ": 891,
      "æĹ¥æľ¬èªŀãĥĨãĤŃãĤ¹ãĥĪãĤĴåįģåĪĨãģªéĩıãģłãģĳè¿½åĬłãģĹãģ¦ãģıãģłãģķãģĦ": 892,
      "ãĥ©ãĤ¤ãĤ»ãĥ³ãĤ¹ä¸Ĭåķıé¡Įãģ®ãģªãģĦæĹ¥æľ¬èªŀãĥĨãĤŃãĤ¹ãĥĪãĤĴåįģåĪĨãģªéĩıãģłãģĳè¿½åĬłãģĹãģ¦ãģıãģłãģķãģĦ": 893,
      "ĠH": 894,
      "rom": 895,
      "il": 896,
      "ter": 897,
      "ge": 898,
      "Ġch": 899,
      "ru": 900,
      "ĠC": 901,
      "out": 902,
      "Ġsp": 903,
      "ill": 904,
      "Ġbut": 905,
      "ven": 906,
      "ard": 907,
      "âĢ": 908,
      "ast": 909,
      "ORD": 910,
      "Ġman": 911,
      "Ġwas": 912,
      "Ġare": 913,
      "EN": 914,
      "Ġsu": 915,
      "ĠE": 916,
      "ight": 917,
      "ame": 918,
      "if": 919,
      "ĠJ": 920,
      "au": 921,
      "ine": 922,
      "ic": 923,
      "Ġfrom": 924,
      "Ġtheir": 925,
      "Ġv": 926,
      "ĠP": 927,
      "Ġthere": 928,
      "ot": 929,
      "ant": 930,
      "ers": 931,
      "AN": 932,
      "ell": 933,
      "ĠTh": 934,
      "ĠLORD": 935,
      "Ġsa": 936,
      "Ġfa": 937,
      "Ġkn": 938,
      "US": 939,
      "em": 940,
      "[_": 941,
      "AR": 942,
      "art": 943,
      "To": 944,
      "Ġwhich": 945,
      "fore": 946,
      "ong": 947,
      "one": 948,
      "ĠF": 949,
      "ol": 950,
      "Ġat": 951,
      "ER": 952,
      "Ġne": 953,
      "Ġam": 954,
      "sel": 955,
      "Ġour": 956,
      "Ġcom": 957,
      "Ġde": 958,
      "ous": 959,
      "._": 960,
      "IN": 961,
      "ive": 962,
      "fe": 963,
      "Ġshe": 964,
      "res": 965,
      "ĠĠĠĠ": 966,
      "ind": 967,
      "._]": 968,
      "the": 969,
      "qu": 970,
      "ĠO": 971,
      "ok": 972,
      "Ġsay": 973,
      "ES": 974,
      "Ġcon": 975,
      "op": 976,
      "Ġout": 977,
      "ie": 978,
      "ct": 979,
      "Ġupon": 980,
      "Ġmu": 981,
      "os": 982,
      "ĠD": 983,
      "own": 984,
      "Ġwere": 985,
      "That": 986,
      "Ġbl": 987,
      "ood": 988,
      "ON": 989,
      "ish": 990,
      "Ġgood": 991,
      "Ġhath": 992,
      "rou": 993,
      "Ġor": 994,
      "ĠGod": 995,
      "gain": 996,
      "ry": 997,
      "What": 998,
      "ose": 999,
      "old": 1000,
      "Ġsaid": 1001,
      "Ġwhat": 1002,
      "Ġwhen": 1003,
      "Ġsw": 1004,
      "ĠR": 1005,
      "Ġone": 1006,
      "Ġus": 1007,
      "Ġcome": 1008,
      "Ġson": 1009,
      "Ġwor": 1010,
      "Ġal": 1011,
      "ren": 1012,
      "ost": 1013,
      "Ġlord": 1014,
      "pp": 1015,
      "Ġar": 1016,
      "Ġpr": 1017,
      "ate": 1018,
      "Ġpl": 1019,
      "Ġknow": 1020,
      "ul": 1021,
      "Ġif": 1022,
      "Ġmore": 1023,
      "pt": 1024,
      "Ġday": 1025,
      "to": 1026,
      "Ġhad": 1027,
      "ĠThe": 1028,
      "ure": 1029,
      "self": 1030,
      "Ġnow": 1031,
      "ings": 1032,
      "um": 1033,
      "ation": 1034,
      "Ġwould": 1035,
      "Ġhand": 1036,
      "ves": 1037,
      "Ġagain": 1038,
      "Ġlet": 1039,
      "Ġlove": 1040,
      "nter": 1041,
      "Ġye": 1042,
      "ĠT": 1043,
      "are": 1044,
      "âĢĶ": 1045,
      "ah": 1046,
      "Ġoff": 1047,
      "Ġj": 1048,
      "very": 1049,
      "ity": 1050,
      "reat": 1051,
      "ak": 1052,
      "ST": 1053,
      "Ġmad": 1054,
      "ĠN": 1055,
      "Ġcan": 1056,
      "Ġthen": 1057,
      "ue": 1058,
      "ies": 1059,
      "ild": 1060,
      "Ġmay": 1061,
      "Ġdid": 1062,
      "Ġthan": 1063,
      "of": 1064,
      "ass": 1065,
      "ink": 1066,
      "ness": 1067,
      "ice": 1068,
      "But": 1069,
      "AL": 1070,
      "Ġmake": 1071,
      "ance": 1072,
      "Ġsee": 1073,
      "OL": 1074,
      "ith": 1075,
      "ide": 1076,
      "end": 1077,
      "ence": 1078,
      "ort": 1079,
      "Ex": 1080,
      "ĠâĢĻ": 1081,
      "un": 1082,
      "Ġshould": 1083,
      "ĠIs": 1084,
      "Ġab": 1085,
      "Ġking": 1086,
      "ist": 1087,
      "Ġfo": 1088,
      "Ġbo": 1089,
      "urn": 1090,
      "Ġun": 1091,
      "Ġtru": 1092,
      "Ġlike": 1093,
      "ig": 1094,
      "eak": 1095,
      "orn": 1096,
      "ise": 1097,
      "ouse": 1098,
      "ĠK": 1099,
      "ĠW": 1100,
      "alt": 1101,
      "ound": 1102,
      "ath": 1103,
      "Ġpro": 1104,
      "Ġfather": 1105,
      "Ġsir": 1106,
      "ave": 1107,
      "ud": 1108,
      "Ġtw": 1109,
      "As": 1110,
      "ire": 1111,
      "Ġhere": 1112,
      "Ġbre": 1113,
      "ph": 1114,
      "Ġr": 1115,
      "Ġmen": 1116,
      "sh": 1117,
      "ime": 1118,
      "Ġwell": 1119,
      "Ġaf": 1120,
      "For": 1121,
      "eth": 1122,
      "Ġheart": 1123,
      "LE": 1124,
      "row": 1125,
      "You": 1126,
      "erv": 1127,
      "TH": 1128,
      "IO": 1129,
      "ck": 1130,
      "Ġear": 1131,
      "Ġey": 1132,
      "Ġthese": 1133,
      "ble": 1134,
      "Ġbefore": 1135,
      "rael": 1136,
      "RO": 1137,
      "Ġchild": 1138,
      "Ġen": 1139,
      "ING": 1140,
      "Ġhouse": 1141,
      "ither": 1142,
      "Ġfl": 1143,
      "Ġinto": 1144,
      "Ġgreat": 1145,
      "Ġqu": 1146,
      "way": 1147,
      "ĠWh": 1148,
      "CH": 1149,
      "other": 1150,
      "Ġpe": 1151,
      "nder": 1152,
      "Ġmade": 1153,
      "wn": 1154,
      "EL": 1155,
      "ack": 1156,
      "Ġgive": 1157,
      "ment": 1158,
      "ount": 1159,
      "ĠBut": 1160,
      "Ġmust": 1161,
      "Ġri": 1162,
      "Ġword": 1163,
      "ople": 1164,
      "Ġdis": 1165,
      "ĠIsrael": 1166,
      "Ġyet": 1167,
      "My": 1168,
      "ace": 1169,
      "ber": 1170,
      "Ġcame": 1171,
      "ĠĠĠ": 1172,
      "ng": 1173,
      "Ġhea": 1174,
      "IA": 1175,
      "Ġwhere": 1176,
      "ause": 1177,
      "igh": 1178,
      "Ġtake": 1179,
      "ag": 1180,
      "Ġsuch": 1181,
      "Ġcomm": 1182,
      "Ġsome": 1183,
      "Ġmine": 1184,
      "Ġspeak": 1185,
      "be": 1186,
      "Ġshalt": 1187,
      "Ġro": 1188,
      "Ġ[_": 1189,
      "red": 1190,
      "ree": 1191,
      "Ġland": 1192,
      "IR": 1193,
      "Ġbr": 1194,
      "ick": 1195,
      "Ġtime": 1196,
      "KING": 1197,
      "he": 1198,
      "age": 1199,
      "ite": 1200,
      "ward": 1201,
      "Ġex": 1202,
      "Ġpeople": 1203,
      "Ġhon": 1204,
      "Ġany": 1205,
      "ang": 1206,
      "eath": 1207,
      "LO": 1208,
      "He": 1209,
      "Ġhast": 1210,
      "so": 1211,
      "eet": 1212,
      "ull": 1213,
      "Ġbro": 1214,
      "unt": 1215,
      "Ġhear": 1216,
      "Ġtoo": 1217,
      "ved": 1218,
      "aught": 1219,
      "eld": 1220,
      "itt": 1221,
      "ap": 1222,
      "Ġagainst": 1223,
      "ans": 1224,
      "ip": 1225,
      "aith": 1226,
      "ress": 1227,
      "Ġchildren": 1228,
      "Ġdes": 1229,
      "ust": 1230,
      "ful": 1231,
      "Ġdown": 1232,
      "Ġcall": 1233,
      "Ġhow": 1234,
      "ign": 1235,
      "If": 1236,
      "Ġra": 1237,
      "ach": 1238,
      "11": 1239,
      "10": 1240,
      "Ġpo": 1241,
      "Ġwho": 1242,
      "Ġle": 1243,
      "Ġother": 1244,
      "cc": 1245,
      "ile": 1246,
      "io": 1247,
      "oul": 1248,
      "thing": 1249,
      "With": 1250,
      "Enter": 1251,
      "ĠFor": 1252,
      "Ġart": 1253,
      "Ġevery": 1254,
      "ady": 1255,
      "ff": 1256,
      "ĠLord": 1257,
      "Ġnor": 1258,
      "ĠKing": 1259,
      "ĠHe": 1260,
      "Ġbet": 1261,
      "Ġblood": 1262,
      "TI": 1263,
      "Ġname": 1264,
      "Ġco": 1265,
      "Ġtwo": 1266,
      "not": 1267,
      "Ġpart": 1268,
      "Ġserv": 1269,
      "In": 1270,
      "âĢľ": 1271,
      "Ġaway": 1272,
      "Ġfri": 1273,
      "Ġheaven": 1274,
      "Ġmuch": 1275,
      "Ġlife": 1276,
      "lem": 1277,
      "hold": 1278,
      "Ġway": 1279,
      "Ġthink": 1280,
      "ks": 1281,
      "Ġdeath": 1282,
      "Ġown": 1283,
      "Ġlook": 1284,
      "Ġpri": 1285,
      "ears": 1286,
      "aster": 1287,
      "Ġlea": 1288,
      "Ġput": 1289,
      "ase": 1290,
      "Ġper": 1291,
      "Ġeven": 1292,
      "Ġafter": 1293,
      "Ġmar": 1294,
      "Ġke": 1295,
      "Ġcl": 1296,
      "ee": 1297,
      "ARD": 1298,
      "ft": 1299,
      "Ġsc": 1300,
      "Ġpass": 1301,
      "Ġtell": 1302,
      "ince": 1303,
      "IUS": 1304,
      "Ġeyes": 1305,
      "AM": 1306,
      "Ġover": 1307,
      "Ġoffer": 1308,
      "Ġmight": 1309,
      "irst": 1310,
      "13": 1311,
      "No": 1312,
      "ï¿½": 1313,
      "oth": 1314,
      "av": 1315,
      "Ġmost": 1316,
      "Ġsl": 1317,
      "Ġstr": 1318,
      "Ġdoth": 1319,
      "Ġfriend": 1320,
      "12": 1321,
      "les": 1322,
      "eunt": 1323,
      "sw": 1324,
      "14": 1325,
      "Thou": 1326,
      "aw": 1327,
      "Be": 1328,
      "ENE": 1329,
      "Ġnight": 1330,
      "Ġnever": 1331,
      "ESS": 1332,
      "aid": 1333,
      "ious": 1334,
      "ĠEnter": 1335,
      "lt": 1336,
      "Ġwr": 1337,
      "âĢĿ": 1338,
      "Ġpre": 1339,
      "Why": 1340,
      "Ġwom": 1341,
      "Exeunt": 1342,
      "Of": 1343,
      "ied": 1344,
      "Ġdone": 1345,
      "pe": 1346,
      "per": 1347,
      "led": 1348,
      "ty": 1349,
      "How": 1350,
      "Ġwar": 1351,
      "Ġpray": 1352,
      "for": 1353,
      "ĠĠĠĠĠĠĠĠ": 1354,
      "Ġthine": 1355,
      "Ġfair": 1356,
      "Exit": 1357,
      "Ġgra": 1358,
      "This": 1359,
      "Ġple": 1360,
      "Ġfear": 1361,
      "15": 1362,
      "Ġhonour": 1363,
      "Is": 1364,
      "Ġbeg": 1365,
      "ius": 1366,
      "So": 1367,
      "Ġbec": 1368,
      "Ġapp": 1369,
      "Ġrem": 1370,
      "Which": 1371,
      "able": 1372,
      "Ġad": 1373,
      "ĠBe": 1374,
      "ne": 1375,
      "ĠV": 1376,
      "Ġearth": 1377,
      "16": 1378,
      "Ġhead": 1379,
      "ĠThen": 1380,
      "Ġgent": 1381,
      "Ġever": 1382,
      "ia": 1383,
      "ĠWhat": 1384,
      "Ġru": 1385,
      "Ġwent": 1386,
      "ene": 1387,
      "Ġset": 1388,
      "Ġgl": 1389,
      "iv": 1390,
      "wh": 1391,
      "Ġsweet": 1392,
      "Ġho": 1393,
      "ANT": 1394,
      "RI": 1395,
      "Ġvery": 1396,
      "Ġalso": 1397,
      "Ġsm": 1398,
      "Ġacc": 1399,
      "Ġforth": 1400,
      "IL": 1401,
      "Ġbrother": 1402,
      "Ġold": 1403,
      "Ġbring": 1404,
      "AT": 1405,
      "orrow": 1406,
      "ants": 1407,
      "ĠY": 1408,
      "Ġsoul": 1409,
      "18": 1410,
      "Ġplace": 1411,
      "ower": 1412,
      "Ġthings": 1413,
      "eed": 1414,
      "Ġstand": 1415,
      "CE": 1416,
      "Ġworld": 1417,
      "Ġfirst": 1418,
      "Ġwat": 1419,
      "rought": 1420,
      "Ġbeen": 1421,
      "ew": 1422,
      "ove": 1423,
      "Ġim": 1424,
      "Ġend": 1425,
      "Ġbear": 1426,
      "well": 1427,
      "ock": 1428,
      "Ġsons": 1429,
      "SE": 1430,
      "Ġcomp": 1431,
      "ert": 1432,
      "Ġdaught": 1433,
      "19": 1434,
      "ield": 1435,
      "Ġtrue": 1436,
      "ond": 1437,
      "rown": 1438,
      "Ġkeep": 1439,
      "17": 1440,
      "LA": 1441,
      "llow": 1442,
      "Ġpres": 1443,
      "Ġcannot": 1444,
      "eace": 1445,
      "oses": 1446,
      "tis": 1447,
      "ites": 1448,
      "20": 1449,
      "Ġarm": 1450,
      "Ġmany": 1451,
      "Ġdead": 1452,
      "It": 1453,
      "ian": 1454,
      "rough": 1455,
      "Ġsaying": 1456,
      "Ġcour": 1457,
      "CENE": 1458,
      "FF": 1459,
      "ark": 1460,
      "21": 1461,
      "atter": 1462,
      "erefore": 1463,
      "land": 1464,
      "uke": 1465,
      "less": 1466,
      "ub": 1467,
      "ĠIf": 1468,
      "Ġmer": 1469,
      "vil": 1470,
      "Ġcommand": 1471,
      "We": 1472,
      "oh": 1473,
      "und": 1474,
      "Ġunder": 1475,
      "oy": 1476,
      "its": 1477,
      "Sh": 1478,
      "Ġwife": 1479,
      "een": 1480,
      "22": 1481,
      "Ġboth": 1482,
      "ern": 1483,
      "Ġthus": 1484,
      "ĠII": 1485,
      "ail": 1486,
      "aint": 1487,
      "swer": 1488,
      "Ġlong": 1489,
      "By": 1490,
      "When": 1491,
      "ors": 1492,
      "Ġsin": 1493,
      "SCENE": 1494,
      "Ġthose": 1495,
      "Ġtherefore": 1496,
      "Ġtri": 1497,
      "ather": 1498,
      "AC": 1499,
      "IRST": 1500,
      "int": 1501,
      "Ġwhom": 1502,
      "FIRST": 1503,
      "Ġturn": 1504,
      "Ġpur": 1505,
      "Ġrep": 1506,
      "ving": 1507,
      "ĠCh": 1508,
      "selves": 1509,
      "Ġdel": 1510,
      "Ġbeing": 1511,
      "Ġanswer": 1512,
      "ason": 1513,
      "iver": 1514,
      "ĠâĢľ": 1515,
      "Ġthought": 1516,
      "PH": 1517,
      "UR": 1518,
      "ces": 1519,
      "Ġhimself": 1520,
      "alk": 1521,
      "Or": 1522,
      "sand": 1523,
      "ĠMoses": 1524,
      "Ġent": 1525,
      "cene": 1526,
      "iss": 1527,
      "Where": 1528,
      "Ġwords": 1529,
      "Ġface": 1530,
      "Ġnew": 1531,
      "ens": 1532,
      "ret": 1533,
      "DU": 1534,
      "ely": 1535,
      "23": 1536,
      "Ġyoung": 1537,
      "Ġcont": 1538,
      "ction": 1539,
      "Ġpoor": 1540,
      "Ġbrought": 1541,
      "Ġdays": 1542,
      "Ġdie": 1543,
      "Ġcould": 1544,
      "rie": 1545,
      "Let": 1546,
      "Tis": 1547,
      "ried": 1548,
      "QU": 1549,
      "Ġfind": 1550,
      "Ġgod": 1551,
      "Ġlive": 1552,
      "Ġabout": 1553,
      "Ġleave": 1554,
      "Ġheard": 1555,
      "cy": 1556,
      "Ġrest": 1557,
      "Ġfell": 1558,
      "Ġsent": 1559,
      "ĠSh": 1560,
      "Ġfool": 1561,
      "24": 1562,
      "Ġbu": 1563,
      "Ġchar": 1564,
      "Ġthing": 1565,
      "ough": 1566,
      "oice": 1567,
      "Ġeat": 1568,
      ".]": 1569,
      "Who": 1570,
      "Ġgi": 1571,
      "Ġwo": 1572,
      "ittle": 1573,
      "Ġthousand": 1574,
      "Ġnothing": 1575,
      "Ġsle": 1576,
      "dom": 1577,
      "ier": 1578,
      "Ġfall": 1579,
      "Come": 1580,
      "Ġlaw": 1581,
      "ets": 1582,
      "Ġpriest": 1583,
      "Ġbel": 1584,
      "Ġsword": 1585,
      "her": 1586,
      "els": 1587,
      "ob": 1588,
      "tend": 1589,
      "Ġstill": 1590,
      "Ay": 1591,
      "gy": 1592,
      "Ġfire": 1593,
      "Ġcons": 1594,
      "Ġdaughter": 1595,
      "Ġbetter": 1596,
      "ENT": 1597,
      "Ġtre": 1598,
      "akes": 1599,
      "with": 1600,
      "Ġnoble": 1601,
      "AND": 1602,
      "round": 1603,
      "Ġwoman": 1604,
      "pon": 1605,
      "Ġtook": 1606,
      "Now": 1607,
      "Ġret": 1608,
      "Ġcity": 1609,
      "Ġlittle": 1610,
      "esh": 1611,
      "Ġpeace": 1612,
      "Ġhigh": 1613,
      "ĠDuke": 1614,
      "Ġamong": 1615,
      "Ġanother": 1616,
      "Ġthree": 1617,
      "outh": 1618,
      "Ġnone": 1619,
      "ows": 1620,
      "ĠPh": 1621,
      "ale": 1622,
      "ory": 1623,
      "Ġel": 1624,
      "that": 1625,
      "Ġlady": 1626,
      "Ġang": 1627,
      "oss": 1628,
      "Ġsaw": 1629,
      "Ġgold": 1630,
      "Ġjud": 1631,
      "Ġbecause": 1632,
      "gypt": 1633,
      "Ġbest": 1634,
      "Ġthrough": 1635,
      "Ġmother": 1636,
      "25": 1637,
      "Ġhold": 1638,
      "Ġcomes": 1639,
      "_.]": 1640,
      "26": 1641,
      "Ġlie": 1642,
      "mb": 1643,
      "ins": 1644,
      "ever": 1645,
      "Ġgr": 1646,
      "Your": 1647,
      "az": 1648,
      "Ġconf": 1649,
      "Ġhands": 1650,
      "man": 1651,
      "apt": 1652,
      "Ġtong": 1653,
      "ps": 1654,
      "ains": 1655,
      "Ġright": 1656,
      "Ġfollow": 1657,
      "ike": 1658,
      "CON": 1659,
      "Ġkind": 1660,
      "Ġeye": 1661,
      "ss": 1662,
      "gether": 1663,
      "ĠThou": 1664,
      "Ġmaster": 1665,
      "Ġlight": 1666,
      "bs": 1667,
      "Ġsaith": 1668,
      "Ġfull": 1669,
      "Ġcur": 1670,
      "arry": 1671,
      "Then": 1672,
      "ister": 1673,
      "Ġgone": 1674,
      "ison": 1675,
      "Ġcount": 1676,
      "Ġspir": 1677,
      "ĠNow": 1678,
      "Ġbehold": 1679,
      "ording": 1680,
      "TER": 1681,
      "mp": 1682,
      "Ġsame": 1683,
      "Ġwit": 1684,
      "thy": 1685,
      "iah": 1686,
      "ars": 1687,
      "tle": 1688,
      "Ġbra": 1689,
      "Ġmyself": 1690,
      "istress": 1691,
      "Ġwhose": 1692,
      "ary": 1693,
      "STA": 1694,
      "ange": 1695,
      "ĠLet": 1696,
      "IC": 1697,
      "ple": 1698,
      "KE": 1699,
      "Ġneither": 1700,
      "ought": 1701,
      "ĠRome": 1702,
      "ĠSo": 1703,
      "Ġ3": 1704,
      "UC": 1705,
      "ĠEgypt": 1706,
      "erve": 1707,
      "Ġmon": 1708,
      "Ġoffering": 1709,
      "une": 1710,
      "rink": 1711,
      "Ġgu": 1712,
      "ours": 1713,
      "ese": 1714,
      "TR": 1715,
      "EM": 1716,
      "27": 1717,
      "uck": 1718,
      "Ġthereof": 1719,
      "Ġyears": 1720,
      "rance": 1721,
      "Ġcause": 1722,
      "uty": 1723,
      "ash": 1724,
      "BER": 1725,
      "Ġdre": 1726,
      "There": 1727,
      "undred": 1728,
      "Ġind": 1729,
      "Here": 1730,
      "Ġhop": 1731,
      "Ġmind": 1732,
      "Ġfaith": 1733,
      "asure": 1734,
      "Ġtill": 1735,
      "ations": 1736,
      "der": 1737,
      "come": 1738,
      "Ġdear": 1739,
      "Ġbur": 1740,
      "esus": 1741,
      "They": 1742,
      "ouch": 1743,
      "ience": 1744,
      "ĠAb": 1745,
      "iness": 1746,
      "ĠThis": 1747,
      "IS": 1748,
      "She": 1749,
      "over": 1750,
      "ions": 1751,
      "cl": 1752,
      "Ġste": 1753,
      "ken": 1754,
      "band": 1755,
      "Ġkill": 1756,
      "atch": 1757,
      "ities": 1758,
      "avid": 1759,
      "Ġsub": 1760,
      "Ġwork": 1761,
      "Ġpresent": 1762,
      "His": 1763,
      "Ġwithout": 1764,
      "Ġgave": 1765,
      "usband": 1766,
      "Ġgrie": 1767,
      "Ġsea": 1768,
      "Ġres": 1769,
      "CHARD": 1770,
      "St": 1771,
      "Ġpower": 1772,
      "ĠOF": 1773,
      "ook": 1774,
      "Ġback": 1775,
      "Ġnat": 1776,
      "ments": 1777,
      "Ġshow": 1778,
      "Ġreturn": 1779,
      "de": 1780,
      "ily": 1781,
      "Ġfound": 1782,
      "Ġbless": 1783,
      "oun": 1784,
      "Than": 1785,
      "Ġthough": 1786,
      "HAM": 1787,
      "Ġholy": 1788,
      "Ġtongue": 1789,
      "Ġtogether": 1790,
      "men": 1791,
      "pen": 1792,
      "ons": 1793,
      "air": 1794,
      "ray": 1795,
      "LET": 1796,
      "COND": 1797,
      "ĠZ": 1798,
      "ertain": 1799,
      "Ġgods": 1800,
      "ĠAn": 1801,
      "shall": 1802,
      "Ġbod": 1803,
      "cle": 1804,
      "Ġenem": 1805,
      "BE": 1806,
      "Ġhundred": 1807,
      "Ġtra": 1808,
      "ring": 1809,
      "esar": 1810,
      "Ġass": 1811,
      "ief": 1812,
      "EEN": 1813,
      "Ġcalled": 1814,
      "ĠDavid": 1815,
      "ĠJud": 1816,
      "Well": 1817,
      "Ġnear": 1818,
      "SECOND": 1819,
      "Ġfriends": 1820,
      "ner": 1821,
      "eds": 1822,
      "Ġstay": 1823,
      "Ġsure": 1824,
      "ship": 1825,
      "Ġmo": 1826,
      "Ġbes": 1827,
      "ĠAnt": 1828,
      "ROS": 1829,
      "eech": 1830,
      "Ġcourt": 1831,
      "ged": 1832,
      "ĠJer": 1833,
      "Ġmount": 1834,
      "Ġfar": 1835,
      "Ġseem": 1836,
      "QUEEN": 1837,
      "Ġhusband": 1838,
      "raw": 1839,
      "elp": 1840,
      "ush": 1841,
      "ĠEng": 1842,
      "ised": 1843,
      "Do": 1844,
      "aesar": 1845,
      "Ġdeliver": 1846,
      "Ġgiven": 1847,
      "STAFF": 1848,
      "Not": 1849,
      "ade": 1850,
      "Ġseven": 1851,
      "Ġvir": 1852,
      "Ġaccording": 1853,
      "ning": 1854,
      "Ġplay": 1855,
      "ird": 1856,
      "ALSTAFF": 1857,
      "ween": 1858,
      "Ġfort": 1859,
      "ĠSir": 1860,
      "ates": 1861,
      "FALSTAFF": 1862,
      "Ġsec": 1863,
      "Ġtruth": 1864,
      "WN": 1865,
      "imes": 1866,
      "Ġside": 1867,
      ".âĢĶ": 1868,
      "RY": 1869,
      "ents": 1870,
      "Ġwind": 1871,
      "Ġsight": 1872,
      "Ġleft": 1873,
      "29": 1874,
      "uc": 1875,
      "ix": 1876,
      "roy": 1877,
      "Good": 1878,
      "Ġfield": 1879,
      "Ġlay": 1880,
      "Ġgentlem": 1881,
      "MAN": 1882,
      "ĠYou": 1883,
      "Ġfal": 1884,
      "Ġmeet": 1885,
      "ĠJesus": 1886,
      "ict": 1887,
      "DUKE": 1888,
      "ED": 1889,
      "gth": 1890,
      "orse": 1891,
      "any": 1892,
      "Ġstrong": 1893,
      "Ġspirit": 1894,
      "Ġseen": 1895,
      "ET": 1896,
      "Ġwithin": 1897,
      "esty": 1898,
      "Ġboy": 1899,
      "Nay": 1900,
      "UL": 1901,
      "ĠTo": 1902,
      "Ġsil": 1903,
      "Ġhope": 1904,
      "Ġdisc": 1905,
      "Ġelse": 1906,
      "Sir": 1907,
      "Ġgrace": 1908,
      "teous": 1909,
      "Ġspake": 1910,
      "Ġfour": 1911,
      "Ġwater": 1912,
      "INE": 1913,
      "Ġforg": 1914,
      "ĠAr": 1915,
      "thee": 1916,
      "enty": 1917,
      "ĠMy": 1918,
      "tw": 1919,
      "Ġvoice": 1920,
      "AG": 1921,
      "bt": 1922,
      "ĠLe": 1923,
      "iz": 1924,
      "ony": 1925,
      "race": 1926,
      "Ġjust": 1927,
      "LU": 1928,
      "ICK": 1929,
      "ished": 1930,
      "Ġonce": 1931,
      "fect": 1932,
      "30": 1933,
      "Ġmatter": 1934,
      "31": 1935,
      "Ġcast": 1936,
      "Ġreason": 1937,
      "uch": 1938,
      "Ġcrown": 1939,
      "ham": 1940,
      "OTH": 1941,
      "Will": 1942,
      "Ġfam": 1943,
      "Ġgentle": 1944,
      "ID": 1945,
      "Ġimp": 1946,
      "usa": 1947,
      "Ġservant": 1948,
      "Ġvill": 1949,
      "Ġdep": 1950,
      "umber": 1951,
      "Shall": 1952,
      "Ġwrong": 1953,
      "ĠCome": 1954,
      "usalem": 1955,
      "ANTON": 1956,
      "Ġdrink": 1957,
      "Ġshame": 1958,
      "amp": 1959,
      "Ġevil": 1960,
      "fort": 1961,
      "ĠCl": 1962,
      "OST": 1963,
      "ener": 1964,
      "Ġmean": 1965,
      "ohn": 1966,
      "PR": 1967,
      "RESS": 1968,
      "Ġpra": 1969,
      "Ġsleep": 1970,
      "let": 1971,
      "ceive": 1972,
      "Ġsun": 1973,
      "Ġbreak": 1974,
      "ĠJudah": 1975,
      "Ġten": 1976,
      "Ġbed": 1977,
      "oke": 1978,
      "oint": 1979,
      "Ġmaid": 1980,
      "Ġtem": 1981,
      "com": 1982,
      "Ġbid": 1983,
      "ĠCaesar": 1984,
      "Ġsend": 1985,
      "GO": 1986,
      "MAR": 1987,
      "Ġdou": 1988,
      "ĠIt": 1989,
      "ned": 1990,
      "Ġtold": 1991,
      "aken": 1992,
      "rist": 1993,
      "Ġmouth": 1994,
      "oney": 1995,
      "Ġflesh": 1996,
      "Have": 1997,
      "Ġhar": 1998,
      "Go": 1999,
      "den": 2000,
      "Ġhum": 2001,
      "Ġmis": 2002,
      "ĠHow": 2003,
      "Ġhour": 2004,
      "Ġletter": 2005,
      "day": 2006,
      "RA": 2007,
      "Ġbody": 2008,
      "32": 2009,
      "Thy": 2010,
      "pl": 2011,
      "Ġsold": 2012,
      "Ġstri": 2013,
      "ury": 2014,
      "ieve": 2015,
      "Ġhence": 2016,
      "anger": 2017,
      "ift": 2018,
      "ect": 2019,
      "ger": 2020,
      "Nor": 2021,
      "ĠThat": 2022,
      "CA": 2023,
      "ĠFrance": 2024,
      "Ġhelp": 2025,
      "Ġbea": 2026,
      "Ġonly": 2027,
      "PRIN": 2028,
      "Al": 2029,
      "Ġfalse": 2030,
      "Aside": 2031,
      "ute": 2032,
      "Ġfight": 2033,
      "Ġdost": 2034,
      "ient": 2035,
      "pect": 2036,
      "oud": 2037,
      "attle": 2038,
      "act": 2039,
      "Ġcapt": 2040,
      "ition": 2041,
      "Ġindeed": 2042,
      "LES": 2043,
      "Ġdest": 2044,
      "ENRY": 2045,
      "aul": 2046,
      "IST": 2047
    },
    "merges": [
      [
        "ã",
        "ģ"
      ],
      [
        "ã",
        "Ĥ"
      ],
      [
        "t",
        "h"
      ],
      [
        "ã",
        "ĥ"
      ],
      [
        "ã",
        "Ģ"
      ],
      [
        "Ġ",
        "th"
      ],
      [
        "ãĢ",
        "ģ"
      ],
      [
        "Ġ",
        "a"
      ],
      [
        "Ġth",
        "e"
      ],
      [
        "Ġ",
        "s"
      ],
      [
        "n",
        "d"
      ],
      [
        "Ġ",
        "h"
      ],
      [
        "e",
        "r"
      ],
      [
        "o",
        "u"
      ],
      [
        "i",
        "n"
      ],
      [
        "Ġ",
        "w"
      ],
      [
        "Ġ",
        "m"
      ],
      [
        "Ġ",
        "b"
      ],
      [
        "Ġ",
        "o"
      ],
      [
        "ãĤ",
        "Ĵ"
      ],
      [
        "ãĢ",
        "Ĥ"
      ],
      [
        "r",
        "e"
      ],
      [
        "è",
        "ª"
      ],
      [
        "ãģ",
        "¯"
      ],
      [
        "ãģ",
        "Ļ"
      ],
      [
        "i",
        "s"
      ],
      [
        "Ġ",
        "t"
      ],
      [
        "e",
        "n"
      ],
      [
        "l",
        "l"
      ],
      [
        "Ġ",
        "f"
      ],
      [
        "ãģ",
        "®"
      ],
      [
        "ãģ",
        "Ĺ"
      ],
      [
        "o",
        "r"
      ],
      [
        "o",
        "n"
      ],
      [
        "a",
        "t"
      ],
      [
        "Ġa",
        "nd"
      ],
      [
        "Ġo",
        "f"
      ],
      [
        "e",
        "s"
      ],
      [
        "ãģ",
        "¾"
      ],
      [
        "ãģ¾",
        "ãģĻ"
      ],
      [
        "Ġ",
        "c"
      ],
      [
        "Ġ",
        "d"
      ],
      [
        "èª",
        "ŀ"
      ],
      [
        "ãĥ",
        "¼"
      ],
      [
        "ãģ",
        "Ħ"
      ],
      [
        "ãģ",
        "§"
      ],
      [
        "a",
        "r"
      ],
      [
        "Ģ",
        "Ļ"
      ],
      [
        "Ġ",
        "n"
      ],
      [
        "Ġ",
        "l"
      ],
      [
        "a",
        "n"
      ],
      [
        "Ġ",
        "p"
      ],
      [
        "e",
        "d"
      ],
      [
        "Ġt",
        "o"
      ],
      [
        "Ġ",
        "y"
      ],
      [
        "æ",
        "ĸ"
      ],
      [
        "æ",
        "Ĺ"
      ],
      [
        "æ",
        "ľ"
      ],
      [
        "ãĤ",
        "¹"
      ],
      [
        "æĹ",
        "¥"
      ],
      [
        "ãĥ¼",
        "ãĤ"
      ],
      [
        "ı",
        "ãģ"
      ],
      [
        "Ġ",
        "I"
      ],
      [
        "e",
        "l"
      ],
      [
        "â",
        "ĢĻ"
      ],
      [
        "i",
        "t"
      ],
      [
        "in",
        "g"
      ],
      [
        "o",
        "m"
      ],
      [
        "Ġy",
        "ou"
      ],
      [
        "s",
        "t"
      ],
      [
        "Ġ",
        "in"
      ],
      [
        "ãģ",
        "¨"
      ],
      [
        "æľ",
        "¬"
      ],
      [
        "ãĥ",
        "ĩ"
      ],
      [
        "æĸ",
        "ĩ"
      ],
      [
        "ãģ",
        "ª"
      ],
      [
        "ãĤ",
        "¤"
      ],
      [
        "ķ",
        "ä"
      ],
      [
        "ãģĹ",
        "ãģ¾ãģĻ"
      ],
      [
        "l",
        "e"
      ],
      [
        "Ġ",
        "g"
      ],
      [
        "Ġw",
        "i"
      ],
      [
        "v",
        "e"
      ],
      [
        "Ġb",
        "e"
      ],
      [
        "o",
        "w"
      ],
      [
        "Ġs",
        "h"
      ],
      [
        "T",
        "h"
      ],
      [
        "Ġh",
        "a"
      ],
      [
        "Ġh",
        "e"
      ],
      [
        "Ġ",
        "u"
      ],
      [
        "Ġ",
        "2"
      ],
      [
        "Ġn",
        "o"
      ],
      [
        "o",
        "d"
      ],
      [
        "c",
        "h"
      ],
      [
        "a",
        "l"
      ],
      [
        "A",
        "nd"
      ],
      [
        "a",
        "y"
      ],
      [
        "ãģ",
        "¦"
      ],
      [
        "ãģ",
        "ķ"
      ],
      [
        "·",
        "·"
      ],
      [
        "æ",
        "··"
      ],
      [
        "è",
        "¨"
      ],
      [
        "ä",
        "¸"
      ],
      [
        "å",
        "Ĳ"
      ],
      [
        "å",
        "Ń"
      ],
      [
        "è",
        "Ħ"
      ],
      [
        "ãĤ",
        "ī"
      ],
      [
        "ãĥ",
        "Ī"
      ],
      [
        "åĲ",
        "Ī"
      ],
      [
        "èĦ",
        "Ī"
      ],
      [
        "¾",
        "¡"
      ],
      [
        "å",
        "Ī"
      ],
      [
        "è",
        "©"
      ],
      [
        "é",
        "ĩ"
      ],
      [
        "æľ¬",
        "èªŀ"
      ],
      [
        "ãĥ¼ãĤ",
        "¿"
      ],
      [
        "ãģĹ",
        "ãģ¦"
      ],
      [
        "ķä",
        "¾¡"
      ],
      [
        "è©",
        "ķä¾¡"
      ],
      [
        "æĸĩ",
        "èĦĪ"
      ],
      [
        "æĹ¥",
        "æľ¬èªŀ"
      ],
      [
        "ãĥĩ",
        "ãĥ¼ãĤ¿"
      ],
      [
        "c",
        "e"
      ],
      [
        "i",
        "m"
      ],
      [
        "Ġth",
        "at"
      ],
      [
        "Ġw",
        "h"
      ],
      [
        "t",
        "e"
      ],
      [
        "l",
        "d"
      ],
      [
        "s",
        "e"
      ],
      [
        "i",
        "r"
      ],
      [
        "a",
        "ll"
      ],
      [
        "g",
        "h"
      ],
      [
        "Ġm",
        "y"
      ],
      [
        "e",
        "t"
      ],
      [
        "n",
        "t"
      ],
      [
        "o",
        "c"
      ],
      [
        "Ġf",
        "or"
      ],
      [
        "u",
        "t"
      ],
      [
        "i",
        "d"
      ],
      [
        "Ġ",
        "is"
      ],
      [
        "Ġ",
        "e"
      ],
      [
        "a",
        "s"
      ],
      [
        "Ġm",
        "e"
      ],
      [
        "P",
        "E"
      ],
      [
        "Ġno",
        "t"
      ],
      [
        "Ġwi",
        "th"
      ],
      [
        "er",
        "e"
      ],
      [
        "Ġh",
        "is"
      ],
      [
        "k",
        "e"
      ],
      [
        "Ġ",
        "B"
      ],
      [
        "4",
        "8"
      ],
      [
        "Ġ2",
        "0"
      ],
      [
        "ãĤ",
        "«"
      ],
      [
        "èª",
        "Ń"
      ],
      [
        "½",
        "Ļ"
      ],
      [
        "å",
        "½Ļ"
      ],
      [
        "ç",
        "Ķ"
      ],
      [
        "è",
        "ĭ"
      ],
      [
        "é",
        "Ģ"
      ],
      [
        "ãģ",
        "ĳ"
      ],
      [
        "ãĥ",
        "¢"
      ],
      [
        "ãĥ",
        "«"
      ],
      [
        "ãĥ",
        "Ĩ"
      ],
      [
        "åŃ",
        "Ĺ"
      ],
      [
        "èĭ",
        "±"
      ],
      [
        "ãģ",
        "¿"
      ],
      [
        "ãģ",
        "ĭ"
      ],
      [
        "ãģ",
        "ĵ"
      ],
      [
        "ãĤ",
        "Į"
      ],
      [
        "ãĥ",
        "ĳ"
      ],
      [
        "ãĥ",
        "Ń"
      ],
      [
        "ä¸",
        "Ĭ"
      ],
      [
        "æ",
        "®"
      ],
      [
        "ç",
        "ļ"
      ],
      [
        "ãĥ",
        "©"
      ],
      [
        "ãĥ",
        "³"
      ],
      [
        "çļ",
        "Ħ"
      ],
      [
        "Ĺ",
        "ãĤĴ"
      ],
      [
        "ãĤ¹",
        "ãĥĪ"
      ],
      [
        "Ġ20",
        "48"
      ],
      [
        "èªŀ",
        "å½Ļ"
      ],
      [
        "ãĥ©",
        "ãĤ¤"
      ],
      [
        "æ··",
        "åĲĪ"
      ],
      [
        "ãģ§",
        "ãģĻ"
      ],
      [
        "ãģĭ",
        "ãĤī"
      ],
      [
        "ª",
        "ãģ§"
      ],
      [
        "ıãģ",
        "ł"
      ],
      [
        "ãģ¨",
        "ãģĹãģ¦"
      ],
      [
        "ªãģ§",
        "ãģ¯"
      ],
      [
        "a",
        "m"
      ],
      [
        "Ġ",
        "M"
      ],
      [
        "Ġ",
        "Ġ"
      ],
      [
        "a",
        "d"
      ],
      [
        "Ġ",
        "it"
      ],
      [
        "en",
        "t"
      ],
      [
        "ou",
        "r"
      ],
      [
        "r",
        "i"
      ],
      [
        "Ġb",
        "y"
      ],
      [
        "a",
        "c"
      ],
      [
        "th",
        "er"
      ],
      [
        "gh",
        "t"
      ],
      [
        "Ġh",
        "im"
      ],
      [
        "Ġth",
        "ou"
      ],
      [
        "W",
        "h"
      ],
      [
        "v",
        "er"
      ],
      [
        "e",
        "p"
      ],
      [
        "a",
        "b"
      ],
      [
        "Ġsh",
        "all"
      ],
      [
        "Ġ",
        "And"
      ],
      [
        "r",
        "a"
      ],
      [
        "Ġ",
        "L"
      ],
      [
        "r",
        "o"
      ],
      [
        "a",
        "nd"
      ],
      [
        "a",
        "i"
      ],
      [
        "o",
        "re"
      ],
      [
        "Ġ",
        "k"
      ],
      [
        "Ġ",
        "re"
      ],
      [
        "e",
        "a"
      ],
      [
        "Ġs",
        "t"
      ],
      [
        "Ġo",
        "n"
      ],
      [
        "or",
        "d"
      ],
      [
        "Ġyou",
        "r"
      ],
      [
        "u",
        "r"
      ],
      [
        "a",
        "in"
      ],
      [
        "Ġa",
        "s"
      ],
      [
        "u",
        "s"
      ],
      [
        "Ġha",
        "ve"
      ],
      [
        "om",
        "e"
      ],
      [
        "Ġl",
        "i"
      ],
      [
        "Ġ",
        "S"
      ],
      [
        "Ġ",
        "A"
      ],
      [
        "es",
        "t"
      ],
      [
        "Ġth",
        "is"
      ],
      [
        "Ġd",
        "o"
      ],
      [
        "Ġa",
        "ll"
      ],
      [
        "Ġ",
        "1"
      ],
      [
        "i",
        "on"
      ],
      [
        "Ġth",
        "y"
      ],
      [
        "Ġwi",
        "ll"
      ],
      [
        "l",
        "y"
      ],
      [
        "Th",
        "e"
      ],
      [
        "O",
        "R"
      ],
      [
        "Ġw",
        "e"
      ],
      [
        "es",
        "s"
      ],
      [
        "¿",
        "½"
      ],
      [
        "Ġg",
        "o"
      ],
      [
        "A",
        "S"
      ],
      [
        "C",
        "I"
      ],
      [
        "Ġa",
        "n"
      ],
      [
        "nt",
        "o"
      ],
      [
        "Ġ",
        "G"
      ],
      [
        "Ġs",
        "o"
      ],
      [
        "x",
        "t"
      ],
      [
        "2",
        "8"
      ],
      [
        "U",
        "T"
      ],
      [
        "c",
        "on"
      ],
      [
        "ou",
        "ld"
      ],
      [
        "Ġthe",
        "m"
      ],
      [
        "v",
        "el"
      ],
      [
        "A",
        "I"
      ],
      [
        "l",
        "oc"
      ],
      [
        "Ġthe",
        "y"
      ],
      [
        "Ġh",
        "er"
      ],
      [
        "g",
        "en"
      ],
      [
        "Ġl",
        "o"
      ],
      [
        "Ġu",
        "nto"
      ],
      [
        "Ġs",
        "e"
      ],
      [
        "Ġ",
        "6"
      ],
      [
        "Ġu",
        "p"
      ],
      [
        "a",
        "ke"
      ],
      [
        "i",
        "ch"
      ],
      [
        "ĠM",
        "ac"
      ],
      [
        "e",
        "ar"
      ],
      [
        "v",
        "oc"
      ],
      [
        "Ġ2",
        "5"
      ],
      [
        "m",
        "od"
      ],
      [
        "ep",
        "th"
      ],
      [
        "con",
        "te"
      ],
      [
        "ãģ",
        "ı"
      ],
      [
        "ãĤ",
        "¿"
      ],
      [
        "CI",
        "I"
      ],
      [
        "ãģ",
        "Ľ"
      ],
      [
        "éĩ",
        "ı"
      ],
      [
        "voc",
        "ab"
      ],
      [
        "B",
        "PE"
      ],
      [
        "¤",
        "ľ"
      ],
      [
        "¸",
        "¬"
      ],
      [
        "æ",
        "¤ľ"
      ],
      [
        "æ",
        "¸¬"
      ],
      [
        "ãĤ",
        "Ĥ"
      ],
      [
        "æĸ",
        "¹"
      ],
      [
        "UT",
        "F"
      ],
      [
        "¢",
        "ĥ"
      ],
      [
        "«",
        "ł"
      ],
      [
        "¬",
        "¡"
      ],
      [
        "¯",
        "¾"
      ],
      [
        "µ",
        "Ħ"
      ],
      [
        "¶",
        "ļ"
      ],
      [
        "º",
        "Ī"
      ],
      [
        "»",
        "Ĭ"
      ],
      [
        "¼",
        "¢"
      ],
      [
        "¿",
        "ľ"
      ],
      [
        "ä",
        "ºĪ"
      ],
      [
        "ä",
        "»Ĭ"
      ],
      [
        "å",
        "°"
      ],
      [
        "å",
        "ĭ"
      ],
      [
        "å",
        "Į"
      ],
      [
        "å",
        "ı"
      ],
      [
        "å",
        "ķ"
      ],
      [
        "å",
        "ľ"
      ],
      [
        "å",
        "¢ĥ"
      ],
      [
        "å",
        "¯¾"
      ],
      [
        "å",
        "¿ľ"
      ],
      [
        "æ",
        "Ī"
      ],
      [
        "æ",
        "ķ"
      ],
      [
        "æ",
        "¬¡"
      ],
      [
        "æ",
        "¼¢"
      ],
      [
        "ç",
        "®"
      ],
      [
        "ç",
        "Ĥ"
      ],
      [
        "ç",
        "ı"
      ],
      [
        "ç",
        "Ĵ"
      ],
      [
        "ç",
        "Ľ"
      ],
      [
        "ç",
        "Ł"
      ],
      [
        "ç",
        "«ł"
      ],
      [
        "ç",
        "µĦ"
      ],
      [
        "ç",
        "¶ļ"
      ],
      [
        "è",
        "ī"
      ],
      [
        "Ġ",
        "ä¸Ĭ"
      ],
      [
        "ãģ",
        "²"
      ],
      [
        "ãģ",
        "Į"
      ],
      [
        "ãĤ",
        "³"
      ],
      [
        "ãĥ",
        "Ĭ"
      ],
      [
        "ãĥ",
        "Ĳ"
      ],
      [
        "èª",
        "į"
      ],
      [
        "è¨",
        "¼"
      ],
      [
        "è¨",
        "Ī"
      ],
      [
        "è¨",
        "ĵ"
      ],
      [
        "ä¸",
        "¡"
      ],
      [
        "çĶ",
        "¨"
      ],
      [
        "çĶ",
        "Ł"
      ],
      [
        "éĢ",
        "²"
      ],
      [
        "éĢ",
        "ļ"
      ],
      [
        "åĮ",
        "ĸ"
      ],
      [
        "åı",
        "¥"
      ],
      [
        "åķ",
        "ı"
      ],
      [
        "åľ",
        "¨"
      ],
      [
        "æĪ",
        "Ĳ"
      ],
      [
        "æķ",
        "°"
      ],
      [
        "çĤ",
        "¹"
      ],
      [
        "çı",
        "¾"
      ],
      [
        "çĴ",
        "°"
      ],
      [
        "çĽ",
        "®"
      ],
      [
        "çŁ",
        "Ń"
      ],
      [
        "èī",
        "¯"
      ],
      [
        "¡",
        "Į"
      ],
      [
        "¢",
        "º"
      ],
      [
        "£",
        "ľ"
      ],
      [
        "¦",
        "ĸ"
      ],
      [
        "®",
        "ļ"
      ],
      [
        "·",
        "´"
      ],
      [
        "»",
        "¸"
      ],
      [
        "¼",
        "Ŀ"
      ],
      [
        "½",
        "ľ"
      ],
      [
        "ä",
        "¼Ŀ"
      ],
      [
        "å",
        "Ĩ"
      ],
      [
        "å",
        "Ĭ"
      ],
      [
        "å",
        "į"
      ],
      [
        "å",
        "ĵ"
      ],
      [
        "å",
        "ĸ"
      ],
      [
        "å",
        "Ľ"
      ],
      [
        "å",
        "ĢĻ"
      ],
      [
        "å",
        "®ļ"
      ],
      [
        "æ",
        "Ģ"
      ],
      [
        "æ",
        "ī"
      ],
      [
        "æ",
        "Ķ"
      ],
      [
        "ç",
        "ķ"
      ],
      [
        "ç",
        "ĸ"
      ],
      [
        "ç",
        "¢º"
      ],
      [
        "ç",
        "·´"
      ],
      [
        "è",
        "³"
      ],
      [
        "è",
        "¿½"
      ],
      [
        "è",
        "£ľ"
      ],
      [
        "è",
        "¦ĸ"
      ],
      [
        "è",
        "»¸"
      ],
      [
        "é",
        "ģ"
      ],
      [
        "é",
        "ķ"
      ],
      [
        "é",
        "ļ"
      ],
      [
        "é",
        "¡Į"
      ],
      [
        "Ġ",
        "ãģ¯"
      ],
      [
        "ãģ",
        "«"
      ],
      [
        "ãĤ",
        "°"
      ],
      [
        "ãĤ",
        "·"
      ],
      [
        "ãĤ",
        "»"
      ],
      [
        "ãĤ",
        "Ń"
      ],
      [
        "ãĥ",
        "¥"
      ],
      [
        "ãĥ",
        "ĥ"
      ],
      [
        "ãĥ",
        "ı"
      ],
      [
        "ãĥ",
        "Ĺ"
      ],
      [
        "æľ",
        "Ģ"
      ],
      [
        "åŃ",
        "Ĳ"
      ],
      [
        "åĪ",
        "Ĩ"
      ],
      [
        "åĪ",
        "Ŀ"
      ],
      [
        "éĩ",
        "į"
      ],
      [
        "ĠB",
        "PE"
      ],
      [
        "æ®",
        "µ"
      ],
      [
        "æ®",
        "ĭ"
      ],
      [
        "AS",
        "CII"
      ],
      [
        "åĨ",
        "į"
      ],
      [
        "åĬ",
        "ł"
      ],
      [
        "åį",
        "ģ"
      ],
      [
        "åĵ",
        "ģ"
      ],
      [
        "åĸ",
        "Ħ"
      ],
      [
        "åĽ",
        "º"
      ],
      [
        "æĢ",
        "§"
      ],
      [
        "æī",
        "±"
      ],
      [
        "æĶ",
        "¹"
      ],
      [
        "çĸ",
        "İ"
      ],
      [
        "éģ",
        "º"
      ],
      [
        "éķ",
        "·"
      ],
      [
        "éļ",
        "İ"
      ],
      [
        "ãģ®",
        "æ¤ľ"
      ],
      [
        "ãģ®",
        "ä¸¡"
      ],
      [
        "æĹ¥",
        "ãģ¯"
      ],
      [
        "åĪ",
        "ĹãĤĴ"
      ],
      [
        "èªŃ",
        "ãģ¿"
      ],
      [
        "èĭ±",
        "èªŀ"
      ],
      [
        "Ġ1",
        "28"
      ],
      [
        "AI",
        "ãģ¯"
      ],
      [
        "Ġ25",
        "6"
      ],
      [
        "æĸ¹",
        "ãĤĴ"
      ],
      [
        "äºĪ",
        "æ¸¬"
      ],
      [
        "ç¶ļ",
        "ãģĳ"
      ],
      [
        "d",
        "epth"
      ],
      [
        "¯",
        "ãĥĨ"
      ],
      [
        "ãĤĴ",
        "æ··"
      ],
      [
        "ãĤĴ",
        "çĽ®"
      ],
      [
        "ãĤĴ",
        "åįģ"
      ],
      [
        "ãģ¯",
        "å°"
      ],
      [
        "ãģ®",
        "ãĤ¹"
      ],
      [
        "ãģ®",
        "æĸĩ"
      ],
      [
        "ãģ®",
        "ãģª"
      ],
      [
        "ãģ®",
        "ãĥĲ"
      ],
      [
        "ãĥ¼",
        "ãĥĳ"
      ],
      [
        "ãģĦ",
        "çµĦ"
      ],
      [
        "ãģ§",
        "åĭ"
      ],
      [
        "ãģ§",
        "éĢ²"
      ],
      [
        "ãĥĩ",
        "ãĥ«"
      ],
      [
        "ãĤ¤",
        "ãĥĪ"
      ],
      [
        "ãĥĨ",
        "ãĤŃ"
      ],
      [
        "ãģ¿",
        "åĲĪ"
      ],
      [
        "ãģĵ",
        "ãĤĮ"
      ],
      [
        "ãĥ³",
        "ãģ®"
      ],
      [
        "loc",
        "al"
      ],
      [
        "gen",
        "ai"
      ],
      [
        "ãĤ¿",
        "ãĤ«"
      ],
      [
        "å¯¾",
        "å¿ľ"
      ],
      [
        "ç®",
        "ĹãĤĴ"
      ],
      [
        "ç«ł",
        "ãģ¯"
      ],
      [
        "ãģ²",
        "ãĤī"
      ],
      [
        "ãģĮ",
        "ãģª"
      ],
      [
        "è¨ĵ",
        "ç·´"
      ],
      [
        "çĶ¨",
        "ãĤ³"
      ],
      [
        "åĮĸ",
        "è¨Ī"
      ],
      [
        "åı¥",
        "èªŃ"
      ],
      [
        "åķı",
        "é¡Į"
      ],
      [
        "åľ¨",
        "ãģķ"
      ],
      [
        "æķ°",
        "åŃĹ"
      ],
      [
        "çĴ°",
        "å¢ĥ"
      ],
      [
        "ç¢º",
        "èªį"
      ],
      [
        "åĨį",
        "çı¾"
      ],
      [
        "æī±",
        "ãģĦ"
      ],
      [
        "çĸİ",
        "éĢļ"
      ],
      [
        "ãĤ",
        "ıãģ"
      ],
      [
        "ãĤĴ",
        "æ®ĭ"
      ],
      [
        "ãĤ¹",
        "ä¸Ĭ"
      ],
      [
        "ãģª",
        "ãģı"
      ],
      [
        "ãĤ¤",
        "ãĥĹ"
      ],
      [
        "le",
        "vel"
      ],
      [
        "ãģķ",
        "ãĤĮ"
      ],
      [
        "éĩ",
        "ıãģł"
      ],
      [
        "ãģĳ",
        "è¿½"
      ],
      [
        "çļĦ",
        "ãģ«"
      ],
      [
        "Ġby",
        "te"
      ],
      [
        "mod",
        "el"
      ],
      [
        "½ľ",
        "ãģĹ"
      ],
      [
        "åĢĻ",
        "è£ľ"
      ],
      [
        "è»¸",
        "ãĤĴ"
      ],
      [
        "ãĤ°",
        "ãĤĴ"
      ],
      [
        "ãĤ·",
        "ãĥ¥"
      ],
      [
        "ãĤ»",
        "ãĥ³"
      ],
      [
        "ãĥı",
        "ãĥĥ"
      ],
      [
        "åĪĨ",
        "ãģª"
      ],
      [
        "åĪĿ",
        "ãģ®"
      ],
      [
        "éĩį",
        "è¦ĸ"
      ],
      [
        "æ®µ",
        "éļİ"
      ],
      [
        "åĵģ",
        "è³"
      ],
      [
        "åĽº",
        "å®ļ"
      ],
      [
        "æĶ¹",
        "åĸĦ"
      ],
      [
        "éģº",
        "ä¼Ŀ"
      ],
      [
        "ãĤıãģ",
        "Ľ"
      ],
      [
        "ãģ",
        "ıãģ"
      ],
      [
        "æ¼¢",
        "åŃĹ"
      ],
      [
        "æĪĲ",
        "AIãģ¯"
      ],
      [
        "ãģıãģ",
        "¦"
      ],
      [
        "ãĥ¼ãĤ",
        "«"
      ],
      [
        "ıãģ",
        "ķ"
      ],
      [
        "conte",
        "xt"
      ],
      [
        "çŁŃ",
        "ãģĦ"
      ],
      [
        "Ġ",
        "ãģ§ãģĻ"
      ],
      [
        "ãģ",
        "ıãģł"
      ],
      [
        "æľ¬",
        "çķ"
      ],
      [
        "ãģķ",
        "ãģĦ"
      ],
      [
        "èĭ±",
        "æĹ¥"
      ],
      [
        "æ··åĲĪ",
        "UTF"
      ],
      [
        "èĭ±èªŀ",
        "ãģ¨"
      ],
      [
        "ãģıãģ¦",
        "ãĤĤ"
      ],
      [
        "ãĥ¼ãĤ",
        "¯ãĥĨ"
      ],
      [
        "æĸĩèĦĪ",
        "ãĤĴ"
      ],
      [
        "èªŀå½Ļ",
        "ãģ¨"
      ],
      [
        "ãģĽ",
        "ãģ¾ãģĻ"
      ],
      [
        "ä»Ĭ",
        "æĹ¥ãģ¯"
      ],
      [
        "Ġä¸Ĭ",
        "ãģ§åĭ"
      ],
      [
        "èī¯",
        "ãģĦçµĦ"
      ],
      [
        "ãģ®æ¤ľ",
        "è¨¼"
      ],
      [
        "ãģ®ãĤ¹",
        "ãĥ¢"
      ],
      [
        "ãģ®ãģª",
        "ãģĦ"
      ],
      [
        "ãģĵãĤĮ",
        "ãģ¯"
      ],
      [
        "ãģĦ",
        "ãģ¾ãģĻ"
      ],
      [
        "ãĤ¹",
        "ãģ§ãģĻ"
      ],
      [
        "ķä",
        "½ľãģĹ"
      ],
      [
        "ãĤ«",
        "ãĤ¿ãĤ«"
      ],
      [
        "ãĥ¢",
        "ãĥĩãĥ«"
      ],
      [
        "ãĥ«",
        "çĴ°å¢ĥ"
      ],
      [
        "ãģĵ",
        "ãģ®æĸĩ"
      ],
      [
        "ãĥŃ",
        "ãĥ¼ãĤ«"
      ],
      [
        "ãģĭãĤī",
        "æ¬¡"
      ],
      [
        "ãĤĴçĽ®",
        "çļĦ"
      ],
      [
        "ãģ¯å°",
        "ıãģķ"
      ],
      [
        "åı¥èªŃ",
        "çĤ¹"
      ],
      [
        "åĨįçı¾",
        "æĢ§"
      ],
      [
        "è©ķä¾¡",
        "ãĥŃ"
      ],
      [
        "æĸĩèĦĪ",
        "éķ·"
      ],
      [
        "ãĥĳ",
        "ãĤ¤ãĥĹ"
      ],
      [
        "æľĢ",
        "åĪĿãģ®"
      ],
      [
        "åĬł",
        "ãģĹãģ¦"
      ],
      [
        "ãģ®ä¸¡",
        "æĸ¹ãĤĴ"
      ],
      [
        "åĪĹãĤĴ",
        "äºĪæ¸¬"
      ],
      [
        "åĢĻè£ľ",
        "ãģ¯"
      ],
      [
        "éģºä¼Ŀ",
        "åŃĲ"
      ],
      [
        "ãĤ¹ãĥĪ",
        "ãĤĴåįģ"
      ],
      [
        "çĶŁ",
        "æĪĲAIãģ¯"
      ],
      [
        "ASCII",
        "ãĤĴæ··"
      ],
      [
        "ãĥ³ãģ®",
        "çĸİéĢļ"
      ],
      [
        "ç®ĹãĤĴ",
        "ç¶ļãģĳ"
      ],
      [
        "ç«łãģ¯",
        "è¨ĵç·´"
      ],
      [
        "ãģ²ãĤī",
        "ãģĮãģª"
      ],
      [
        "ãĤ¹ãĥĪ",
        "çĶ¨ãĤ³"
      ],
      [
        "ãģ®ãĥĲ",
        "ãĤ¤ãĥĪ"
      ],
      [
        "ãģ§éĢ²",
        "åĮĸè¨Ī"
      ],
      [
        "ãģ¿åĲĪ",
        "ãĤıãģĽ"
      ],
      [
        "ãĤ¹ä¸Ĭ",
        "åķıé¡Į"
      ],
      [
        "ãģķãĤĮ",
        "ãģ¾ãģĻ"
      ],
      [
        "çļĦãģ«",
        "æĶ¹åĸĦ"
      ],
      [
        "ãĤ°ãĤĴ",
        "éĩįè¦ĸ"
      ],
      [
        "è©ķä¾¡",
        "è»¸ãĤĴ"
      ],
      [
        "ãĥ©ãĤ¤",
        "ãĤ»ãĥ³"
      ],
      [
        "ãģĭãĤī",
        "æ®µéļİ"
      ],
      [
        "éĩıãģł",
        "ãģĳè¿½"
      ],
      [
        "ãĤ·ãĥ¥",
        "åĽºå®ļ"
      ],
      [
        "åĵģè³",
        "ªãģ§ãģ¯"
      ],
      [
        "çŁŃãģĦ",
        "æĸĩèĦĪ"
      ],
      [
        "ãĤ«ãĤ¿ãĤ«",
        "ãĥĬ"
      ],
      [
        "æĹ¥æľ¬èªŀ",
        "å¯¾å¿ľ"
      ],
      [
        "ãĥĩãĥ¼ãĤ¿",
        "éĩı"
      ],
      [
        "ãģ¨ãģĹãģ¦",
        "æī±ãģĦ"
      ],
      [
        "åľ¨ãģķ",
        "ãģĽãģ¾ãģĻ"
      ],
      [
        "ãģıãģł",
        "ãģķãģĦ"
      ],
      [
        "æľ¬çķ",
        "ªãģ§ãģ¯"
      ],
      [
        "èĭ±æĹ¥",
        "æ··åĲĪ"
      ],
      [
        "æĹ¥æľ¬èªŀ",
        "ãĥĨãĤŃ"
      ],
      [
        "ç¢ºèªį",
        "ãĤĴçĽ®çļĦ"
      ],
      [
        "æĸĩèĦĪãĤĴ",
        "è©ķä¾¡"
      ],
      [
        "Ġä¸Ĭãģ§åĭ",
        "ķä½ľãģĹ"
      ],
      [
        "ãĥ¼ãĥĳ",
        "ãĤ¹ãģ§ãģĻ"
      ],
      [
        "èĭ±èªŀãģ¨",
        "æĹ¥æľ¬èªŀ"
      ],
      [
        "ãģ®ä¸¡æĸ¹ãĤĴ",
        "èªŃãģ¿"
      ],
      [
        "ãĤĴæ®ĭ",
        "ãģĹãģ¾ãģĻ"
      ],
      [
        "ãģ®ãĤ¹ãĥ¢",
        "ãĥ¼ãĤ¯ãĥĨ"
      ],
      [
        "ãģ¯å°ıãģķ",
        "ãģıãģ¦ãĤĤ"
      ],
      [
        "ãĥĳãĤ¤ãĥĹ",
        "ãĥ©ãĤ¤"
      ],
      [
        "ãĤ¹ãĥĪãĤĴåįģ",
        "åĪĨãģª"
      ],
      [
        "ãĥĩãĥ¼ãĤ¿",
        "ãģ®æ¤ľè¨¼"
      ],
      [
        "èªŀå½Ļãģ¨",
        "æ··åĲĪUTF"
      ],
      [
        "ãĥŃãĥ¼ãĤ«",
        "ãĥ«çĴ°å¢ĥ"
      ],
      [
        "ãģ¨ãģĹãģ¦",
        "ãģĦãģ¾ãģĻ"
      ],
      [
        "ãĥıãĥĥ",
        "ãĤ·ãĥ¥åĽºå®ļ"
      ],
      [
        "åĵģè³ªãģ§ãģ¯",
        "ãģªãģı"
      ],
      [
        "åĪĹãĤĴäºĪæ¸¬",
        "ãģĹãģ¾ãģĻ"
      ],
      [
        "èī¯ãģĦçµĦ",
        "ãģ¿åĲĪãĤıãģĽ"
      ],
      [
        "ãģĵãģ®æĸĩ",
        "ç«łãģ¯è¨ĵç·´"
      ],
      [
        "æľĢåĪĿãģ®",
        "åĢĻè£ľãģ¯"
      ],
      [
        "ãĤ¹ä¸Ĭåķıé¡Į",
        "ãģ®ãģªãģĦ"
      ],
      [
        "ãĤ°ãĤĴéĩįè¦ĸ",
        "ãģĹãģ¾ãģĻ"
      ],
      [
        "ãģĵãĤĮãģ¯",
        "æĹ¥æľ¬èªŀå¯¾å¿ľ"
      ],
      [
        "ãģĭãĤīæ¬¡",
        "ãģ®ãĥĲãĤ¤ãĥĪ"
      ],
      [
        "ãĥĩãĥ¼ãĤ¿",
        "ãģĭãĤīæ®µéļİ"
      ],
      [
        "åĬłãģĹãģ¦",
        "ãģıãģłãģķãģĦ"
      ],
      [
        "éģºä¼ĿåŃĲ",
        "ãģ¨ãģĹãģ¦æī±ãģĦ"
      ],
      [
        "çļĦãģ«æĶ¹åĸĦ",
        "ãģķãĤĮãģ¾ãģĻ"
      ],
      [
        "ãģ§éĢ²åĮĸè¨Ī",
        "ç®ĹãĤĴç¶ļãģĳ"
      ],
      [
        "ASCIIãĤĴæ··",
        "åľ¨ãģķãģĽãģ¾ãģĻ"
      ],
      [
        "æĸĩèĦĪãĤĴè©ķä¾¡",
        "ãģĹãģ¾ãģĻ"
      ],
      [
        "ãĥ³ãģ®çĸİéĢļ",
        "ç¢ºèªįãĤĴçĽ®çļĦ"
      ],
      [
        "Ġthe",
        "e"
      ],
      [
        "ãĥ¢ãĥĩãĥ«",
        "ãģ¯å°ıãģķãģıãģ¦ãĤĤ"
      ],
      [
        "ä»ĬæĹ¥ãģ¯",
        "ãĥŃãĥ¼ãĤ«ãĥ«çĴ°å¢ĥ"
      ],
      [
        "çĶŁæĪĲAIãģ¯",
        "èĭ±èªŀãģ¨æĹ¥æľ¬èªŀ"
      ],
      [
        "ãĤ¹ãĥĪçĶ¨ãĤ³",
        "ãĥ¼ãĥĳãĤ¹ãģ§ãģĻ"
      ],
      [
        "ãĤ¹ãĥĪãĤĴåįģåĪĨãģª",
        "éĩıãģłãģĳè¿½"
      ],
      [
        "è©ķä¾¡ãĥŃ",
        "ãĤ°ãĤĴéĩįè¦ĸãģĹãģ¾ãģĻ"
      ],
      [
        "ãĥ©ãĤ¤ãĤ»ãĥ³",
        "ãĤ¹ä¸Ĭåķıé¡Įãģ®ãģªãģĦ"
      ],
      [
        "çŁŃãģĦæĸĩèĦĪ",
        "ãģĭãĤīæ¬¡ãģ®ãĥĲãĤ¤ãĥĪ"
      ],
      [
        "è©ķä¾¡è»¸ãĤĴ",
        "éģºä¼ĿåŃĲãģ¨ãģĹãģ¦æī±ãģĦ"
      ],
      [
        "èĭ±æĹ¥æ··åĲĪ",
        "ãĥĩãĥ¼ãĤ¿ãģĭãĤīæ®µéļİ"
      ],
      [
        "èī¯ãģĦçµĦãģ¿åĲĪãĤıãģĽ",
        "ãĤĴæ®ĭãģĹãģ¾ãģĻ"
      ],
      [
        "ãģĵãĤĮãģ¯æĹ¥æľ¬èªŀå¯¾å¿ľ",
        "ãģ®ãĤ¹ãĥ¢ãĥ¼ãĤ¯ãĥĨ"
      ],
      [
        "ãģĵãģ®æĸĩç«łãģ¯è¨ĵç·´",
        "åĵģè³ªãģ§ãģ¯ãģªãģı"
      ],
      [
        "ãĥĳãĤ¤ãĥĹãĥ©ãĤ¤",
        "ãĥ³ãģ®çĸİéĢļç¢ºèªįãĤĴçĽ®çļĦ"
      ],
      [
        "çĶŁæĪĲAIãģ¯èĭ±èªŀãģ¨æĹ¥æľ¬èªŀ",
        "ãģ®ä¸¡æĸ¹ãĤĴèªŃãģ¿"
      ],
      [
        "æĹ¥æľ¬èªŀãĥĨãĤŃ",
        "ãĤ¹ãĥĪãĤĴåįģåĪĨãģªéĩıãģłãģĳè¿½"
      ],
      [
        "ä»ĬæĹ¥ãģ¯ãĥŃãĥ¼ãĤ«ãĥ«çĴ°å¢ĥ",
        "ãģ§éĢ²åĮĸè¨Īç®ĹãĤĴç¶ļãģĳ"
      ],
      [
        "çŁŃãģĦæĸĩèĦĪãģĭãĤīæ¬¡ãģ®ãĥĲãĤ¤ãĥĪ",
        "åĪĹãĤĴäºĪæ¸¬ãģĹãģ¾ãģĻ"
      ],
      [
        "èĭ±æĹ¥æ··åĲĪãĥĩãĥ¼ãĤ¿ãģĭãĤīæ®µéļİ",
        "çļĦãģ«æĶ¹åĸĦãģķãĤĮãģ¾ãģĻ"
      ],
      [
        "ãĥĳãĤ¤ãĥĹãĥ©ãĤ¤ãĥ³ãģ®çĸİéĢļç¢ºèªįãĤĴçĽ®çļĦ",
        "ãģ¨ãģĹãģ¦ãģĦãģ¾ãģĻ"
      ],
      [
        "ãģĵãĤĮãģ¯æĹ¥æľ¬èªŀå¯¾å¿ľãģ®ãĤ¹ãĥ¢ãĥ¼ãĤ¯ãĥĨ",
        "ãĤ¹ãĥĪçĶ¨ãĤ³ãĥ¼ãĥĳãĤ¹ãģ§ãģĻ"
      ],
      [
        "æĹ¥æľ¬èªŀãĥĨãĤŃãĤ¹ãĥĪãĤĴåįģåĪĨãģªéĩıãģłãģĳè¿½",
        "åĬłãģĹãģ¦ãģıãģłãģķãģĦ"
      ],
      [
        "ãĥ©ãĤ¤ãĤ»ãĥ³ãĤ¹ä¸Ĭåķıé¡Įãģ®ãģªãģĦ",
        "æĹ¥æľ¬èªŀãĥĨãĤŃãĤ¹ãĥĪãĤĴåįģåĪĨãģªéĩıãģłãģĳè¿½åĬłãģĹãģ¦ãģıãģłãģķãģĦ"
      ],
      [
        "Ġ",
        "H"
      ],
      [
        "r",
        "om"
      ],
      [
        "i",
        "l"
      ],
      [
        "t",
        "er"
      ],
      [
        "g",
        "e"
      ],
      [
        "Ġc",
        "h"
      ],
      [
        "r",
        "u"
      ],
      [
        "Ġ",
        "C"
      ],
      [
        "ou",
        "t"
      ],
      [
        "Ġs",
        "p"
      ],
      [
        "i",
        "ll"
      ],
      [
        "Ġb",
        "ut"
      ],
      [
        "v",
        "en"
      ],
      [
        "ar",
        "d"
      ],
      [
        "â",
        "Ģ"
      ],
      [
        "a",
        "st"
      ],
      [
        "OR",
        "D"
      ],
      [
        "Ġm",
        "an"
      ],
      [
        "Ġw",
        "as"
      ],
      [
        "Ġa",
        "re"
      ],
      [
        "E",
        "N"
      ],
      [
        "Ġs",
        "u"
      ],
      [
        "Ġ",
        "E"
      ],
      [
        "i",
        "ght"
      ],
      [
        "am",
        "e"
      ],
      [
        "i",
        "f"
      ],
      [
        "Ġ",
        "J"
      ],
      [
        "a",
        "u"
      ],
      [
        "in",
        "e"
      ],
      [
        "i",
        "c"
      ],
      [
        "Ġf",
        "rom"
      ],
      [
        "Ġthe",
        "ir"
      ],
      [
        "Ġ",
        "v"
      ],
      [
        "Ġ",
        "P"
      ],
      [
        "Ġthe",
        "re"
      ],
      [
        "o",
        "t"
      ],
      [
        "an",
        "t"
      ],
      [
        "er",
        "s"
      ],
      [
        "A",
        "N"
      ],
      [
        "e",
        "ll"
      ],
      [
        "Ġ",
        "Th"
      ],
      [
        "ĠL",
        "ORD"
      ],
      [
        "Ġs",
        "a"
      ],
      [
        "Ġf",
        "a"
      ],
      [
        "Ġk",
        "n"
      ],
      [
        "U",
        "S"
      ],
      [
        "e",
        "m"
      ],
      [
        "[",
        "_"
      ],
      [
        "A",
        "R"
      ],
      [
        "ar",
        "t"
      ],
      [
        "T",
        "o"
      ],
      [
        "Ġwh",
        "ich"
      ],
      [
        "f",
        "ore"
      ],
      [
        "on",
        "g"
      ],
      [
        "on",
        "e"
      ],
      [
        "Ġ",
        "F"
      ],
      [
        "o",
        "l"
      ],
      [
        "Ġa",
        "t"
      ],
      [
        "E",
        "R"
      ],
      [
        "Ġn",
        "e"
      ],
      [
        "Ġa",
        "m"
      ],
      [
        "s",
        "el"
      ],
      [
        "Ġ",
        "our"
      ],
      [
        "Ġc",
        "om"
      ],
      [
        "Ġd",
        "e"
      ],
      [
        "ou",
        "s"
      ],
      [
        ".",
        "_"
      ],
      [
        "I",
        "N"
      ],
      [
        "i",
        "ve"
      ],
      [
        "f",
        "e"
      ],
      [
        "Ġsh",
        "e"
      ],
      [
        "re",
        "s"
      ],
      [
        "ĠĠ",
        "ĠĠ"
      ],
      [
        "i",
        "nd"
      ],
      [
        "._",
        "]"
      ],
      [
        "th",
        "e"
      ],
      [
        "q",
        "u"
      ],
      [
        "Ġ",
        "O"
      ],
      [
        "o",
        "k"
      ],
      [
        "Ġs",
        "ay"
      ],
      [
        "E",
        "S"
      ],
      [
        "Ġc",
        "on"
      ],
      [
        "o",
        "p"
      ],
      [
        "Ġ",
        "out"
      ],
      [
        "i",
        "e"
      ],
      [
        "c",
        "t"
      ],
      [
        "Ġup",
        "on"
      ],
      [
        "Ġm",
        "u"
      ],
      [
        "o",
        "s"
      ],
      [
        "Ġ",
        "D"
      ],
      [
        "ow",
        "n"
      ],
      [
        "Ġw",
        "ere"
      ],
      [
        "Th",
        "at"
      ],
      [
        "Ġb",
        "l"
      ],
      [
        "o",
        "od"
      ],
      [
        "O",
        "N"
      ],
      [
        "is",
        "h"
      ],
      [
        "Ġgo",
        "od"
      ],
      [
        "Ġha",
        "th"
      ],
      [
        "r",
        "ou"
      ],
      [
        "Ġo",
        "r"
      ],
      [
        "ĠG",
        "od"
      ],
      [
        "g",
        "ain"
      ],
      [
        "r",
        "y"
      ],
      [
        "Wh",
        "at"
      ],
      [
        "o",
        "se"
      ],
      [
        "o",
        "ld"
      ],
      [
        "Ġsa",
        "id"
      ],
      [
        "Ġwh",
        "at"
      ],
      [
        "Ġwh",
        "en"
      ],
      [
        "Ġs",
        "w"
      ],
      [
        "Ġ",
        "R"
      ],
      [
        "Ġon",
        "e"
      ],
      [
        "Ġu",
        "s"
      ],
      [
        "Ġc",
        "ome"
      ],
      [
        "Ġs",
        "on"
      ],
      [
        "Ġw",
        "or"
      ],
      [
        "Ġa",
        "l"
      ],
      [
        "re",
        "n"
      ],
      [
        "o",
        "st"
      ],
      [
        "Ġl",
        "ord"
      ],
      [
        "p",
        "p"
      ],
      [
        "Ġa",
        "r"
      ],
      [
        "Ġp",
        "r"
      ],
      [
        "at",
        "e"
      ],
      [
        "Ġp",
        "l"
      ],
      [
        "Ġkn",
        "ow"
      ],
      [
        "u",
        "l"
      ],
      [
        "Ġ",
        "if"
      ],
      [
        "Ġm",
        "ore"
      ],
      [
        "p",
        "t"
      ],
      [
        "Ġd",
        "ay"
      ],
      [
        "t",
        "o"
      ],
      [
        "Ġha",
        "d"
      ],
      [
        "Ġ",
        "The"
      ],
      [
        "u",
        "re"
      ],
      [
        "sel",
        "f"
      ],
      [
        "Ġn",
        "ow"
      ],
      [
        "ing",
        "s"
      ],
      [
        "u",
        "m"
      ],
      [
        "at",
        "ion"
      ],
      [
        "Ġw",
        "ould"
      ],
      [
        "Ġha",
        "nd"
      ],
      [
        "v",
        "es"
      ],
      [
        "Ġa",
        "gain"
      ],
      [
        "Ġl",
        "et"
      ],
      [
        "Ġlo",
        "ve"
      ],
      [
        "nt",
        "er"
      ],
      [
        "Ġy",
        "e"
      ],
      [
        "Ġ",
        "T"
      ],
      [
        "a",
        "re"
      ],
      [
        "âĢ",
        "Ķ"
      ],
      [
        "a",
        "h"
      ],
      [
        "Ġof",
        "f"
      ],
      [
        "Ġ",
        "j"
      ],
      [
        "ver",
        "y"
      ],
      [
        "it",
        "y"
      ],
      [
        "re",
        "at"
      ],
      [
        "a",
        "k"
      ],
      [
        "S",
        "T"
      ],
      [
        "Ġm",
        "ad"
      ],
      [
        "Ġ",
        "N"
      ],
      [
        "Ġc",
        "an"
      ],
      [
        "Ġthe",
        "n"
      ],
      [
        "u",
        "e"
      ],
      [
        "i",
        "es"
      ],
      [
        "i",
        "ld"
      ],
      [
        "Ġm",
        "ay"
      ],
      [
        "Ġd",
        "id"
      ],
      [
        "Ġth",
        "an"
      ],
      [
        "o",
        "f"
      ],
      [
        "as",
        "s"
      ],
      [
        "in",
        "k"
      ],
      [
        "n",
        "ess"
      ],
      [
        "i",
        "ce"
      ],
      [
        "B",
        "ut"
      ],
      [
        "A",
        "L"
      ],
      [
        "Ġm",
        "ake"
      ],
      [
        "an",
        "ce"
      ],
      [
        "Ġse",
        "e"
      ],
      [
        "O",
        "L"
      ],
      [
        "i",
        "th"
      ],
      [
        "id",
        "e"
      ],
      [
        "e",
        "nd"
      ],
      [
        "en",
        "ce"
      ],
      [
        "or",
        "t"
      ],
      [
        "E",
        "x"
      ],
      [
        "Ġ",
        "âĢĻ"
      ],
      [
        "u",
        "n"
      ],
      [
        "Ġsh",
        "ould"
      ],
      [
        "ĠI",
        "s"
      ],
      [
        "Ġa",
        "b"
      ],
      [
        "Ġk",
        "ing"
      ],
      [
        "is",
        "t"
      ],
      [
        "Ġf",
        "o"
      ],
      [
        "Ġb",
        "o"
      ],
      [
        "ur",
        "n"
      ],
      [
        "Ġu",
        "n"
      ],
      [
        "Ġt",
        "ru"
      ],
      [
        "Ġli",
        "ke"
      ],
      [
        "i",
        "g"
      ],
      [
        "ea",
        "k"
      ],
      [
        "or",
        "n"
      ],
      [
        "is",
        "e"
      ],
      [
        "ou",
        "se"
      ],
      [
        "Ġ",
        "K"
      ],
      [
        "Ġ",
        "W"
      ],
      [
        "al",
        "t"
      ],
      [
        "ou",
        "nd"
      ],
      [
        "a",
        "th"
      ],
      [
        "Ġp",
        "ro"
      ],
      [
        "Ġfa",
        "ther"
      ],
      [
        "Ġs",
        "ir"
      ],
      [
        "a",
        "ve"
      ],
      [
        "u",
        "d"
      ],
      [
        "Ġt",
        "w"
      ],
      [
        "A",
        "s"
      ],
      [
        "i",
        "re"
      ],
      [
        "Ġh",
        "ere"
      ],
      [
        "Ġb",
        "re"
      ],
      [
        "p",
        "h"
      ],
      [
        "Ġ",
        "r"
      ],
      [
        "Ġm",
        "en"
      ],
      [
        "s",
        "h"
      ],
      [
        "im",
        "e"
      ],
      [
        "Ġwe",
        "ll"
      ],
      [
        "Ġa",
        "f"
      ],
      [
        "F",
        "or"
      ],
      [
        "e",
        "th"
      ],
      [
        "Ġhe",
        "art"
      ],
      [
        "L",
        "E"
      ],
      [
        "r",
        "ow"
      ],
      [
        "Y",
        "ou"
      ],
      [
        "er",
        "v"
      ],
      [
        "T",
        "H"
      ],
      [
        "I",
        "O"
      ],
      [
        "c",
        "k"
      ],
      [
        "Ġe",
        "ar"
      ],
      [
        "Ġe",
        "y"
      ],
      [
        "Ġthe",
        "se"
      ],
      [
        "b",
        "le"
      ],
      [
        "Ġbe",
        "fore"
      ],
      [
        "ra",
        "el"
      ],
      [
        "R",
        "O"
      ],
      [
        "Ġch",
        "ild"
      ],
      [
        "Ġ",
        "en"
      ],
      [
        "IN",
        "G"
      ],
      [
        "Ġh",
        "ouse"
      ],
      [
        "i",
        "ther"
      ],
      [
        "Ġf",
        "l"
      ],
      [
        "Ġin",
        "to"
      ],
      [
        "Ġg",
        "reat"
      ],
      [
        "Ġ",
        "qu"
      ],
      [
        "w",
        "ay"
      ],
      [
        "Ġ",
        "Wh"
      ],
      [
        "C",
        "H"
      ],
      [
        "o",
        "ther"
      ],
      [
        "Ġp",
        "e"
      ],
      [
        "nd",
        "er"
      ],
      [
        "Ġmad",
        "e"
      ],
      [
        "w",
        "n"
      ],
      [
        "E",
        "L"
      ],
      [
        "ac",
        "k"
      ],
      [
        "Ġg",
        "ive"
      ],
      [
        "m",
        "ent"
      ],
      [
        "ou",
        "nt"
      ],
      [
        "ĠB",
        "ut"
      ],
      [
        "Ġmu",
        "st"
      ],
      [
        "Ġ",
        "ri"
      ],
      [
        "Ġw",
        "ord"
      ],
      [
        "op",
        "le"
      ],
      [
        "Ġd",
        "is"
      ],
      [
        "ĠIs",
        "rael"
      ],
      [
        "Ġy",
        "et"
      ],
      [
        "M",
        "y"
      ],
      [
        "a",
        "ce"
      ],
      [
        "b",
        "er"
      ],
      [
        "Ġc",
        "ame"
      ],
      [
        "ĠĠ",
        "Ġ"
      ],
      [
        "n",
        "g"
      ],
      [
        "Ġhe",
        "a"
      ],
      [
        "I",
        "A"
      ],
      [
        "Ġwh",
        "ere"
      ],
      [
        "au",
        "se"
      ],
      [
        "i",
        "gh"
      ],
      [
        "Ġt",
        "ake"
      ],
      [
        "a",
        "g"
      ],
      [
        "Ġsu",
        "ch"
      ],
      [
        "Ġcom",
        "m"
      ],
      [
        "Ġs",
        "ome"
      ],
      [
        "Ġm",
        "ine"
      ],
      [
        "Ġsp",
        "eak"
      ],
      [
        "b",
        "e"
      ],
      [
        "Ġsh",
        "alt"
      ],
      [
        "Ġ",
        "ro"
      ],
      [
        "Ġ",
        "[_"
      ],
      [
        "re",
        "d"
      ],
      [
        "re",
        "e"
      ],
      [
        "Ġl",
        "and"
      ],
      [
        "I",
        "R"
      ],
      [
        "Ġb",
        "r"
      ],
      [
        "ic",
        "k"
      ],
      [
        "Ġt",
        "ime"
      ],
      [
        "K",
        "ING"
      ],
      [
        "h",
        "e"
      ],
      [
        "a",
        "ge"
      ],
      [
        "it",
        "e"
      ],
      [
        "w",
        "ard"
      ],
      [
        "Ġe",
        "x"
      ],
      [
        "Ġpe",
        "ople"
      ],
      [
        "Ġh",
        "on"
      ],
      [
        "Ġan",
        "y"
      ],
      [
        "an",
        "g"
      ],
      [
        "ea",
        "th"
      ],
      [
        "L",
        "O"
      ],
      [
        "H",
        "e"
      ],
      [
        "Ġha",
        "st"
      ],
      [
        "s",
        "o"
      ],
      [
        "e",
        "et"
      ],
      [
        "u",
        "ll"
      ],
      [
        "Ġb",
        "ro"
      ],
      [
        "u",
        "nt"
      ],
      [
        "Ġhe",
        "ar"
      ],
      [
        "Ġto",
        "o"
      ],
      [
        "v",
        "ed"
      ],
      [
        "au",
        "ght"
      ],
      [
        "el",
        "d"
      ],
      [
        "it",
        "t"
      ],
      [
        "a",
        "p"
      ],
      [
        "Ġagain",
        "st"
      ],
      [
        "an",
        "s"
      ],
      [
        "i",
        "p"
      ],
      [
        "ai",
        "th"
      ],
      [
        "res",
        "s"
      ],
      [
        "Ġchild",
        "ren"
      ],
      [
        "Ġd",
        "es"
      ],
      [
        "u",
        "st"
      ],
      [
        "f",
        "ul"
      ],
      [
        "Ġd",
        "own"
      ],
      [
        "Ġc",
        "all"
      ],
      [
        "Ġh",
        "ow"
      ],
      [
        "ig",
        "n"
      ],
      [
        "I",
        "f"
      ],
      [
        "Ġ",
        "ra"
      ],
      [
        "a",
        "ch"
      ],
      [
        "1",
        "1"
      ],
      [
        "1",
        "0"
      ],
      [
        "Ġp",
        "o"
      ],
      [
        "Ġwh",
        "o"
      ],
      [
        "Ġl",
        "e"
      ],
      [
        "Ġo",
        "ther"
      ],
      [
        "c",
        "c"
      ],
      [
        "i",
        "le"
      ],
      [
        "i",
        "o"
      ],
      [
        "ou",
        "l"
      ],
      [
        "th",
        "ing"
      ],
      [
        "W",
        "ith"
      ],
      [
        "E",
        "nter"
      ],
      [
        "ĠF",
        "or"
      ],
      [
        "Ġar",
        "t"
      ],
      [
        "Ġe",
        "very"
      ],
      [
        "ad",
        "y"
      ],
      [
        "f",
        "f"
      ],
      [
        "ĠL",
        "ord"
      ],
      [
        "Ġn",
        "or"
      ],
      [
        "ĠK",
        "ing"
      ],
      [
        "ĠH",
        "e"
      ],
      [
        "Ġbe",
        "t"
      ],
      [
        "Ġbl",
        "ood"
      ],
      [
        "T",
        "I"
      ],
      [
        "Ġn",
        "ame"
      ],
      [
        "Ġc",
        "o"
      ],
      [
        "Ġtw",
        "o"
      ],
      [
        "n",
        "ot"
      ],
      [
        "Ġp",
        "art"
      ],
      [
        "Ġs",
        "erv"
      ],
      [
        "I",
        "n"
      ],
      [
        "âĢ",
        "ľ"
      ],
      [
        "Ġa",
        "way"
      ],
      [
        "Ġf",
        "ri"
      ],
      [
        "Ġhea",
        "ven"
      ],
      [
        "Ġmu",
        "ch"
      ],
      [
        "Ġli",
        "fe"
      ],
      [
        "le",
        "m"
      ],
      [
        "h",
        "old"
      ],
      [
        "Ġw",
        "ay"
      ],
      [
        "Ġth",
        "ink"
      ],
      [
        "k",
        "s"
      ],
      [
        "Ġd",
        "eath"
      ],
      [
        "Ġo",
        "wn"
      ],
      [
        "Ġlo",
        "ok"
      ],
      [
        "Ġp",
        "ri"
      ],
      [
        "ear",
        "s"
      ],
      [
        "ast",
        "er"
      ],
      [
        "Ġl",
        "ea"
      ],
      [
        "Ġp",
        "ut"
      ],
      [
        "a",
        "se"
      ],
      [
        "Ġp",
        "er"
      ],
      [
        "Ġe",
        "ven"
      ],
      [
        "Ġaf",
        "ter"
      ],
      [
        "Ġm",
        "ar"
      ],
      [
        "Ġ",
        "ke"
      ],
      [
        "Ġc",
        "l"
      ],
      [
        "e",
        "e"
      ],
      [
        "AR",
        "D"
      ],
      [
        "f",
        "t"
      ],
      [
        "Ġs",
        "c"
      ],
      [
        "Ġp",
        "ass"
      ],
      [
        "Ġt",
        "ell"
      ],
      [
        "in",
        "ce"
      ],
      [
        "I",
        "US"
      ],
      [
        "Ġey",
        "es"
      ],
      [
        "A",
        "M"
      ],
      [
        "Ġo",
        "ver"
      ],
      [
        "Ġoff",
        "er"
      ],
      [
        "Ġm",
        "ight"
      ],
      [
        "ir",
        "st"
      ],
      [
        "1",
        "3"
      ],
      [
        "N",
        "o"
      ],
      [
        "ï",
        "¿½"
      ],
      [
        "o",
        "th"
      ],
      [
        "a",
        "v"
      ],
      [
        "Ġm",
        "ost"
      ],
      [
        "Ġs",
        "l"
      ],
      [
        "Ġst",
        "r"
      ],
      [
        "Ġdo",
        "th"
      ],
      [
        "Ġfri",
        "end"
      ],
      [
        "1",
        "2"
      ],
      [
        "l",
        "es"
      ],
      [
        "e",
        "unt"
      ],
      [
        "s",
        "w"
      ],
      [
        "1",
        "4"
      ],
      [
        "Th",
        "ou"
      ],
      [
        "a",
        "w"
      ],
      [
        "B",
        "e"
      ],
      [
        "EN",
        "E"
      ],
      [
        "Ġn",
        "ight"
      ],
      [
        "Ġne",
        "ver"
      ],
      [
        "ES",
        "S"
      ],
      [
        "a",
        "id"
      ],
      [
        "i",
        "ous"
      ],
      [
        "ĠE",
        "nter"
      ],
      [
        "l",
        "t"
      ],
      [
        "Ġw",
        "r"
      ],
      [
        "âĢ",
        "Ŀ"
      ],
      [
        "Ġp",
        "re"
      ],
      [
        "Wh",
        "y"
      ],
      [
        "Ġw",
        "om"
      ],
      [
        "Ex",
        "eunt"
      ],
      [
        "O",
        "f"
      ],
      [
        "i",
        "ed"
      ],
      [
        "Ġd",
        "one"
      ],
      [
        "p",
        "e"
      ],
      [
        "p",
        "er"
      ],
      [
        "l",
        "ed"
      ],
      [
        "t",
        "y"
      ],
      [
        "H",
        "ow"
      ],
      [
        "Ġw",
        "ar"
      ],
      [
        "Ġpr",
        "ay"
      ],
      [
        "f",
        "or"
      ],
      [
        "ĠĠĠĠ",
        "ĠĠĠĠ"
      ],
      [
        "Ġth",
        "ine"
      ],
      [
        "Ġfa",
        "ir"
      ],
      [
        "Ex",
        "it"
      ],
      [
        "Ġg",
        "ra"
      ],
      [
        "Th",
        "is"
      ],
      [
        "Ġp",
        "le"
      ],
      [
        "Ġf",
        "ear"
      ],
      [
        "1",
        "5"
      ],
      [
        "Ġhon",
        "our"
      ],
      [
        "I",
        "s"
      ],
      [
        "Ġbe",
        "g"
      ],
      [
        "i",
        "us"
      ],
      [
        "S",
        "o"
      ],
      [
        "Ġbe",
        "c"
      ],
      [
        "Ġa",
        "pp"
      ],
      [
        "Ġre",
        "m"
      ],
      [
        "Wh",
        "ich"
      ],
      [
        "ab",
        "le"
      ],
      [
        "Ġa",
        "d"
      ],
      [
        "ĠB",
        "e"
      ],
      [
        "n",
        "e"
      ],
      [
        "Ġ",
        "V"
      ],
      [
        "Ġear",
        "th"
      ],
      [
        "1",
        "6"
      ],
      [
        "Ġhe",
        "ad"
      ],
      [
        "ĠTh",
        "en"
      ],
      [
        "Ġg",
        "ent"
      ],
      [
        "Ġe",
        "ver"
      ],
      [
        "i",
        "a"
      ],
      [
        "Ġ",
        "What"
      ],
      [
        "Ġ",
        "ru"
      ],
      [
        "Ġw",
        "ent"
      ],
      [
        "en",
        "e"
      ],
      [
        "Ġs",
        "et"
      ],
      [
        "Ġg",
        "l"
      ],
      [
        "i",
        "v"
      ],
      [
        "w",
        "h"
      ],
      [
        "Ġsw",
        "eet"
      ],
      [
        "Ġh",
        "o"
      ],
      [
        "AN",
        "T"
      ],
      [
        "R",
        "I"
      ],
      [
        "Ġ",
        "very"
      ],
      [
        "Ġal",
        "so"
      ],
      [
        "Ġs",
        "m"
      ],
      [
        "Ġa",
        "cc"
      ],
      [
        "Ġfor",
        "th"
      ],
      [
        "I",
        "L"
      ],
      [
        "Ġbro",
        "ther"
      ],
      [
        "Ġo",
        "ld"
      ],
      [
        "Ġbr",
        "ing"
      ],
      [
        "A",
        "T"
      ],
      [
        "or",
        "row"
      ],
      [
        "ant",
        "s"
      ],
      [
        "Ġ",
        "Y"
      ],
      [
        "Ġs",
        "oul"
      ],
      [
        "1",
        "8"
      ],
      [
        "Ġpl",
        "ace"
      ],
      [
        "ow",
        "er"
      ],
      [
        "Ġth",
        "ings"
      ],
      [
        "e",
        "ed"
      ],
      [
        "Ġst",
        "and"
      ],
      [
        "C",
        "E"
      ],
      [
        "Ġwor",
        "ld"
      ],
      [
        "Ġf",
        "irst"
      ],
      [
        "Ġw",
        "at"
      ],
      [
        "rou",
        "ght"
      ],
      [
        "Ġbe",
        "en"
      ],
      [
        "e",
        "w"
      ],
      [
        "o",
        "ve"
      ],
      [
        "Ġ",
        "im"
      ],
      [
        "Ġe",
        "nd"
      ],
      [
        "Ġbe",
        "ar"
      ],
      [
        "w",
        "ell"
      ],
      [
        "oc",
        "k"
      ],
      [
        "Ġson",
        "s"
      ],
      [
        "S",
        "E"
      ],
      [
        "Ġcom",
        "p"
      ],
      [
        "er",
        "t"
      ],
      [
        "Ġd",
        "aught"
      ],
      [
        "1",
        "9"
      ],
      [
        "i",
        "eld"
      ],
      [
        "Ġtru",
        "e"
      ],
      [
        "o",
        "nd"
      ],
      [
        "r",
        "own"
      ],
      [
        "Ġke",
        "ep"
      ],
      [
        "1",
        "7"
      ],
      [
        "L",
        "A"
      ],
      [
        "ll",
        "ow"
      ],
      [
        "Ġp",
        "res"
      ],
      [
        "Ġcan",
        "not"
      ],
      [
        "ea",
        "ce"
      ],
      [
        "os",
        "es"
      ],
      [
        "t",
        "is"
      ],
      [
        "it",
        "es"
      ],
      [
        "2",
        "0"
      ],
      [
        "Ġar",
        "m"
      ],
      [
        "Ġman",
        "y"
      ],
      [
        "Ġde",
        "ad"
      ],
      [
        "I",
        "t"
      ],
      [
        "i",
        "an"
      ],
      [
        "rou",
        "gh"
      ],
      [
        "Ġsay",
        "ing"
      ],
      [
        "Ġc",
        "our"
      ],
      [
        "C",
        "ENE"
      ],
      [
        "F",
        "F"
      ],
      [
        "ar",
        "k"
      ],
      [
        "2",
        "1"
      ],
      [
        "at",
        "ter"
      ],
      [
        "ere",
        "fore"
      ],
      [
        "l",
        "and"
      ],
      [
        "u",
        "ke"
      ],
      [
        "l",
        "ess"
      ],
      [
        "u",
        "b"
      ],
      [
        "ĠI",
        "f"
      ],
      [
        "Ġm",
        "er"
      ],
      [
        "v",
        "il"
      ],
      [
        "Ġcomm",
        "and"
      ],
      [
        "W",
        "e"
      ],
      [
        "o",
        "h"
      ],
      [
        "u",
        "nd"
      ],
      [
        "Ġu",
        "nder"
      ],
      [
        "o",
        "y"
      ],
      [
        "it",
        "s"
      ],
      [
        "S",
        "h"
      ],
      [
        "Ġwi",
        "fe"
      ],
      [
        "e",
        "en"
      ],
      [
        "2",
        "2"
      ],
      [
        "Ġbo",
        "th"
      ],
      [
        "er",
        "n"
      ],
      [
        "Ġth",
        "us"
      ],
      [
        "ĠI",
        "I"
      ],
      [
        "ai",
        "l"
      ],
      [
        "ain",
        "t"
      ],
      [
        "sw",
        "er"
      ],
      [
        "Ġl",
        "ong"
      ],
      [
        "B",
        "y"
      ],
      [
        "Wh",
        "en"
      ],
      [
        "or",
        "s"
      ],
      [
        "Ġs",
        "in"
      ],
      [
        "S",
        "CENE"
      ],
      [
        "Ġth",
        "ose"
      ],
      [
        "Ġthere",
        "fore"
      ],
      [
        "Ġt",
        "ri"
      ],
      [
        "a",
        "ther"
      ],
      [
        "A",
        "C"
      ],
      [
        "IR",
        "ST"
      ],
      [
        "in",
        "t"
      ],
      [
        "Ġwh",
        "om"
      ],
      [
        "F",
        "IRST"
      ],
      [
        "Ġt",
        "urn"
      ],
      [
        "Ġp",
        "ur"
      ],
      [
        "Ġre",
        "p"
      ],
      [
        "v",
        "ing"
      ],
      [
        "ĠC",
        "h"
      ],
      [
        "sel",
        "ves"
      ],
      [
        "Ġd",
        "el"
      ],
      [
        "Ġbe",
        "ing"
      ],
      [
        "Ġan",
        "swer"
      ],
      [
        "as",
        "on"
      ],
      [
        "i",
        "ver"
      ],
      [
        "Ġ",
        "âĢľ"
      ],
      [
        "Ġthou",
        "ght"
      ],
      [
        "P",
        "H"
      ],
      [
        "U",
        "R"
      ],
      [
        "c",
        "es"
      ],
      [
        "Ġhim",
        "self"
      ],
      [
        "al",
        "k"
      ],
      [
        "O",
        "r"
      ],
      [
        "s",
        "and"
      ],
      [
        "ĠM",
        "oses"
      ],
      [
        "Ġ",
        "ent"
      ],
      [
        "c",
        "ene"
      ],
      [
        "is",
        "s"
      ],
      [
        "Wh",
        "ere"
      ],
      [
        "Ġword",
        "s"
      ],
      [
        "Ġfa",
        "ce"
      ],
      [
        "Ġne",
        "w"
      ],
      [
        "en",
        "s"
      ],
      [
        "re",
        "t"
      ],
      [
        "D",
        "U"
      ],
      [
        "el",
        "y"
      ],
      [
        "2",
        "3"
      ],
      [
        "Ġyou",
        "ng"
      ],
      [
        "Ġcon",
        "t"
      ],
      [
        "ct",
        "ion"
      ],
      [
        "Ġpo",
        "or"
      ],
      [
        "Ġb",
        "rought"
      ],
      [
        "Ġday",
        "s"
      ],
      [
        "Ġd",
        "ie"
      ],
      [
        "Ġc",
        "ould"
      ],
      [
        "ri",
        "e"
      ],
      [
        "L",
        "et"
      ],
      [
        "T",
        "is"
      ],
      [
        "ri",
        "ed"
      ],
      [
        "Q",
        "U"
      ],
      [
        "Ġf",
        "ind"
      ],
      [
        "Ġg",
        "od"
      ],
      [
        "Ġli",
        "ve"
      ],
      [
        "Ġab",
        "out"
      ],
      [
        "Ġlea",
        "ve"
      ],
      [
        "Ġhe",
        "ard"
      ],
      [
        "c",
        "y"
      ],
      [
        "Ġre",
        "st"
      ],
      [
        "Ġf",
        "ell"
      ],
      [
        "Ġs",
        "ent"
      ],
      [
        "ĠS",
        "h"
      ],
      [
        "Ġfo",
        "ol"
      ],
      [
        "2",
        "4"
      ],
      [
        "Ġb",
        "u"
      ],
      [
        "Ġch",
        "ar"
      ],
      [
        "Ġth",
        "ing"
      ],
      [
        "ou",
        "gh"
      ],
      [
        "o",
        "ice"
      ],
      [
        "Ġe",
        "at"
      ],
      [
        ".",
        "]"
      ],
      [
        "Wh",
        "o"
      ],
      [
        "Ġg",
        "i"
      ],
      [
        "Ġw",
        "o"
      ],
      [
        "itt",
        "le"
      ],
      [
        "Ġthou",
        "sand"
      ],
      [
        "Ġno",
        "thing"
      ],
      [
        "Ġs",
        "le"
      ],
      [
        "d",
        "om"
      ],
      [
        "i",
        "er"
      ],
      [
        "Ġf",
        "all"
      ],
      [
        "C",
        "ome"
      ],
      [
        "Ġl",
        "aw"
      ],
      [
        "et",
        "s"
      ],
      [
        "Ġpri",
        "est"
      ],
      [
        "Ġb",
        "el"
      ],
      [
        "Ġsw",
        "ord"
      ],
      [
        "h",
        "er"
      ],
      [
        "el",
        "s"
      ],
      [
        "o",
        "b"
      ],
      [
        "te",
        "nd"
      ],
      [
        "Ġst",
        "ill"
      ],
      [
        "A",
        "y"
      ],
      [
        "g",
        "y"
      ],
      [
        "Ġf",
        "ire"
      ],
      [
        "Ġcon",
        "s"
      ],
      [
        "Ġdaught",
        "er"
      ],
      [
        "Ġbet",
        "ter"
      ],
      [
        "EN",
        "T"
      ],
      [
        "Ġt",
        "re"
      ],
      [
        "ak",
        "es"
      ],
      [
        "w",
        "ith"
      ],
      [
        "Ġno",
        "ble"
      ],
      [
        "AN",
        "D"
      ],
      [
        "rou",
        "nd"
      ],
      [
        "Ġwom",
        "an"
      ],
      [
        "p",
        "on"
      ],
      [
        "Ġto",
        "ok"
      ],
      [
        "N",
        "ow"
      ],
      [
        "Ġre",
        "t"
      ],
      [
        "Ġc",
        "ity"
      ],
      [
        "Ġl",
        "ittle"
      ],
      [
        "es",
        "h"
      ],
      [
        "Ġp",
        "eace"
      ],
      [
        "Ġh",
        "igh"
      ],
      [
        "ĠD",
        "uke"
      ],
      [
        "Ġam",
        "ong"
      ],
      [
        "Ġan",
        "other"
      ],
      [
        "Ġth",
        "ree"
      ],
      [
        "ou",
        "th"
      ],
      [
        "Ġn",
        "one"
      ],
      [
        "ow",
        "s"
      ],
      [
        "ĠP",
        "h"
      ],
      [
        "a",
        "le"
      ],
      [
        "or",
        "y"
      ],
      [
        "Ġ",
        "el"
      ],
      [
        "th",
        "at"
      ],
      [
        "Ġl",
        "ady"
      ],
      [
        "Ġan",
        "g"
      ],
      [
        "os",
        "s"
      ],
      [
        "Ġsa",
        "w"
      ],
      [
        "Ġgo",
        "ld"
      ],
      [
        "Ġj",
        "ud"
      ],
      [
        "Ġbec",
        "ause"
      ],
      [
        "gy",
        "pt"
      ],
      [
        "Ġb",
        "est"
      ],
      [
        "Ġth",
        "rough"
      ],
      [
        "Ġm",
        "other"
      ],
      [
        "2",
        "5"
      ],
      [
        "Ġh",
        "old"
      ],
      [
        "Ġcom",
        "es"
      ],
      [
        "_",
        ".]"
      ],
      [
        "2",
        "6"
      ],
      [
        "Ġli",
        "e"
      ],
      [
        "m",
        "b"
      ],
      [
        "in",
        "s"
      ],
      [
        "e",
        "ver"
      ],
      [
        "Ġg",
        "r"
      ],
      [
        "Y",
        "our"
      ],
      [
        "a",
        "z"
      ],
      [
        "Ġcon",
        "f"
      ],
      [
        "Ġhand",
        "s"
      ],
      [
        "m",
        "an"
      ],
      [
        "a",
        "pt"
      ],
      [
        "Ġt",
        "ong"
      ],
      [
        "p",
        "s"
      ],
      [
        "ain",
        "s"
      ],
      [
        "Ġri",
        "ght"
      ],
      [
        "Ġfo",
        "llow"
      ],
      [
        "i",
        "ke"
      ],
      [
        "C",
        "ON"
      ],
      [
        "Ġk",
        "ind"
      ],
      [
        "Ġey",
        "e"
      ],
      [
        "s",
        "s"
      ],
      [
        "ge",
        "ther"
      ],
      [
        "ĠTh",
        "ou"
      ],
      [
        "Ġm",
        "aster"
      ],
      [
        "Ġli",
        "ght"
      ],
      [
        "b",
        "s"
      ],
      [
        "Ġs",
        "aith"
      ],
      [
        "Ġf",
        "ull"
      ],
      [
        "Ġc",
        "ur"
      ],
      [
        "ar",
        "ry"
      ],
      [
        "Th",
        "en"
      ],
      [
        "is",
        "ter"
      ],
      [
        "Ġg",
        "one"
      ],
      [
        "is",
        "on"
      ],
      [
        "Ġc",
        "ount"
      ],
      [
        "Ġsp",
        "ir"
      ],
      [
        "ĠN",
        "ow"
      ],
      [
        "Ġbe",
        "hold"
      ],
      [
        "ord",
        "ing"
      ],
      [
        "T",
        "ER"
      ],
      [
        "m",
        "p"
      ],
      [
        "Ġs",
        "ame"
      ],
      [
        "Ġw",
        "it"
      ],
      [
        "th",
        "y"
      ],
      [
        "i",
        "ah"
      ],
      [
        "ar",
        "s"
      ],
      [
        "t",
        "le"
      ],
      [
        "Ġb",
        "ra"
      ],
      [
        "Ġmy",
        "self"
      ],
      [
        "ist",
        "ress"
      ],
      [
        "Ġwh",
        "ose"
      ],
      [
        "ar",
        "y"
      ],
      [
        "ST",
        "A"
      ],
      [
        "an",
        "ge"
      ],
      [
        "ĠL",
        "et"
      ],
      [
        "I",
        "C"
      ],
      [
        "p",
        "le"
      ],
      [
        "K",
        "E"
      ],
      [
        "Ġne",
        "ither"
      ],
      [
        "ou",
        "ght"
      ],
      [
        "ĠR",
        "ome"
      ],
      [
        "ĠS",
        "o"
      ],
      [
        "Ġ",
        "3"
      ],
      [
        "U",
        "C"
      ],
      [
        "ĠE",
        "gypt"
      ],
      [
        "er",
        "ve"
      ],
      [
        "Ġm",
        "on"
      ],
      [
        "Ġoffer",
        "ing"
      ],
      [
        "un",
        "e"
      ],
      [
        "r",
        "ink"
      ],
      [
        "Ġg",
        "u"
      ],
      [
        "our",
        "s"
      ],
      [
        "es",
        "e"
      ],
      [
        "T",
        "R"
      ],
      [
        "E",
        "M"
      ],
      [
        "2",
        "7"
      ],
      [
        "u",
        "ck"
      ],
      [
        "Ġthere",
        "of"
      ],
      [
        "Ġy",
        "ears"
      ],
      [
        "r",
        "ance"
      ],
      [
        "Ġc",
        "ause"
      ],
      [
        "ut",
        "y"
      ],
      [
        "as",
        "h"
      ],
      [
        "B",
        "ER"
      ],
      [
        "Ġd",
        "re"
      ],
      [
        "Th",
        "ere"
      ],
      [
        "und",
        "red"
      ],
      [
        "Ġ",
        "ind"
      ],
      [
        "H",
        "ere"
      ],
      [
        "Ġh",
        "op"
      ],
      [
        "Ġm",
        "ind"
      ],
      [
        "Ġf",
        "aith"
      ],
      [
        "as",
        "ure"
      ],
      [
        "Ġt",
        "ill"
      ],
      [
        "ation",
        "s"
      ],
      [
        "d",
        "er"
      ],
      [
        "c",
        "ome"
      ],
      [
        "Ġd",
        "ear"
      ],
      [
        "Ġb",
        "ur"
      ],
      [
        "es",
        "us"
      ],
      [
        "The",
        "y"
      ],
      [
        "ou",
        "ch"
      ],
      [
        "i",
        "ence"
      ],
      [
        "ĠA",
        "b"
      ],
      [
        "in",
        "ess"
      ],
      [
        "ĠTh",
        "is"
      ],
      [
        "I",
        "S"
      ],
      [
        "S",
        "he"
      ],
      [
        "o",
        "ver"
      ],
      [
        "ion",
        "s"
      ],
      [
        "c",
        "l"
      ],
      [
        "Ġs",
        "te"
      ],
      [
        "k",
        "en"
      ],
      [
        "b",
        "and"
      ],
      [
        "Ġk",
        "ill"
      ],
      [
        "at",
        "ch"
      ],
      [
        "it",
        "ies"
      ],
      [
        "av",
        "id"
      ],
      [
        "Ġsu",
        "b"
      ],
      [
        "Ġwor",
        "k"
      ],
      [
        "Ġpres",
        "ent"
      ],
      [
        "H",
        "is"
      ],
      [
        "Ġwith",
        "out"
      ],
      [
        "Ġg",
        "ave"
      ],
      [
        "us",
        "band"
      ],
      [
        "Ġg",
        "rie"
      ],
      [
        "Ġs",
        "ea"
      ],
      [
        "Ġre",
        "s"
      ],
      [
        "CH",
        "ARD"
      ],
      [
        "S",
        "t"
      ],
      [
        "Ġp",
        "ower"
      ],
      [
        "ĠO",
        "F"
      ],
      [
        "o",
        "ok"
      ],
      [
        "Ġb",
        "ack"
      ],
      [
        "Ġn",
        "at"
      ],
      [
        "ment",
        "s"
      ],
      [
        "Ġsh",
        "ow"
      ],
      [
        "Ġret",
        "urn"
      ],
      [
        "d",
        "e"
      ],
      [
        "i",
        "ly"
      ],
      [
        "Ġf",
        "ound"
      ],
      [
        "Ġbl",
        "ess"
      ],
      [
        "ou",
        "n"
      ],
      [
        "Th",
        "an"
      ],
      [
        "Ġthou",
        "gh"
      ],
      [
        "H",
        "AM"
      ],
      [
        "Ġho",
        "ly"
      ],
      [
        "Ġtong",
        "ue"
      ],
      [
        "Ġto",
        "gether"
      ],
      [
        "m",
        "en"
      ],
      [
        "p",
        "en"
      ],
      [
        "on",
        "s"
      ],
      [
        "a",
        "ir"
      ],
      [
        "r",
        "ay"
      ],
      [
        "LE",
        "T"
      ],
      [
        "CON",
        "D"
      ],
      [
        "Ġ",
        "Z"
      ],
      [
        "ert",
        "ain"
      ],
      [
        "Ġgod",
        "s"
      ],
      [
        "ĠA",
        "n"
      ],
      [
        "sh",
        "all"
      ],
      [
        "Ġb",
        "od"
      ],
      [
        "c",
        "le"
      ],
      [
        "Ġen",
        "em"
      ],
      [
        "B",
        "E"
      ],
      [
        "Ġh",
        "undred"
      ],
      [
        "Ġt",
        "ra"
      ],
      [
        "r",
        "ing"
      ],
      [
        "es",
        "ar"
      ],
      [
        "Ġas",
        "s"
      ],
      [
        "ie",
        "f"
      ],
      [
        "E",
        "EN"
      ],
      [
        "Ġcall",
        "ed"
      ],
      [
        "ĠD",
        "avid"
      ],
      [
        "ĠJ",
        "ud"
      ],
      [
        "W",
        "ell"
      ],
      [
        "Ġn",
        "ear"
      ],
      [
        "SE",
        "COND"
      ],
      [
        "Ġfriend",
        "s"
      ],
      [
        "n",
        "er"
      ],
      [
        "ed",
        "s"
      ],
      [
        "Ġst",
        "ay"
      ],
      [
        "Ġsu",
        "re"
      ],
      [
        "sh",
        "ip"
      ],
      [
        "Ġm",
        "o"
      ],
      [
        "Ġb",
        "es"
      ],
      [
        "ĠA",
        "nt"
      ],
      [
        "RO",
        "S"
      ],
      [
        "ee",
        "ch"
      ],
      [
        "Ġcour",
        "t"
      ],
      [
        "g",
        "ed"
      ],
      [
        "ĠJ",
        "er"
      ],
      [
        "Ġm",
        "ount"
      ],
      [
        "Ġf",
        "ar"
      ],
      [
        "Ġse",
        "em"
      ],
      [
        "QU",
        "EEN"
      ],
      [
        "Ġh",
        "usband"
      ],
      [
        "ra",
        "w"
      ],
      [
        "el",
        "p"
      ],
      [
        "us",
        "h"
      ],
      [
        "ĠE",
        "ng"
      ],
      [
        "is",
        "ed"
      ],
      [
        "D",
        "o"
      ],
      [
        "a",
        "esar"
      ],
      [
        "Ġdel",
        "iver"
      ],
      [
        "Ġgi",
        "ven"
      ],
      [
        "STA",
        "FF"
      ],
      [
        "N",
        "ot"
      ],
      [
        "ad",
        "e"
      ],
      [
        "Ġse",
        "ven"
      ],
      [
        "Ġv",
        "ir"
      ],
      [
        "Ġacc",
        "ording"
      ],
      [
        "n",
        "ing"
      ],
      [
        "Ġpl",
        "ay"
      ],
      [
        "ir",
        "d"
      ],
      [
        "AL",
        "STAFF"
      ],
      [
        "w",
        "een"
      ],
      [
        "Ġfor",
        "t"
      ],
      [
        "ĠS",
        "ir"
      ],
      [
        "at",
        "es"
      ],
      [
        "F",
        "ALSTAFF"
      ],
      [
        "Ġse",
        "c"
      ],
      [
        "Ġtru",
        "th"
      ],
      [
        "W",
        "N"
      ],
      [
        "im",
        "es"
      ],
      [
        "Ġs",
        "ide"
      ],
      [
        ".",
        "âĢĶ"
      ],
      [
        "R",
        "Y"
      ],
      [
        "ent",
        "s"
      ],
      [
        "Ġwi",
        "nd"
      ],
      [
        "Ġs",
        "ight"
      ],
      [
        "Ġle",
        "ft"
      ],
      [
        "2",
        "9"
      ],
      [
        "u",
        "c"
      ],
      [
        "i",
        "x"
      ],
      [
        "ro",
        "y"
      ],
      [
        "G",
        "ood"
      ],
      [
        "Ġf",
        "ield"
      ],
      [
        "Ġl",
        "ay"
      ],
      [
        "Ġgent",
        "lem"
      ],
      [
        "M",
        "AN"
      ],
      [
        "Ġ",
        "You"
      ],
      [
        "Ġf",
        "al"
      ],
      [
        "Ġme",
        "et"
      ],
      [
        "ĠJ",
        "esus"
      ],
      [
        "ic",
        "t"
      ],
      [
        "DU",
        "KE"
      ],
      [
        "E",
        "D"
      ],
      [
        "g",
        "th"
      ],
      [
        "or",
        "se"
      ],
      [
        "an",
        "y"
      ],
      [
        "Ġstr",
        "ong"
      ],
      [
        "Ġspir",
        "it"
      ],
      [
        "Ġse",
        "en"
      ],
      [
        "E",
        "T"
      ],
      [
        "Ġwith",
        "in"
      ],
      [
        "est",
        "y"
      ],
      [
        "Ġbo",
        "y"
      ],
      [
        "N",
        "ay"
      ],
      [
        "U",
        "L"
      ],
      [
        "Ġ",
        "To"
      ],
      [
        "Ġs",
        "il"
      ],
      [
        "Ġhop",
        "e"
      ],
      [
        "Ġdis",
        "c"
      ],
      [
        "Ġel",
        "se"
      ],
      [
        "S",
        "ir"
      ],
      [
        "Ġgra",
        "ce"
      ],
      [
        "te",
        "ous"
      ],
      [
        "Ġsp",
        "ake"
      ],
      [
        "Ġf",
        "our"
      ],
      [
        "Ġwat",
        "er"
      ],
      [
        "IN",
        "E"
      ],
      [
        "Ġfor",
        "g"
      ],
      [
        "ĠA",
        "r"
      ],
      [
        "the",
        "e"
      ],
      [
        "ent",
        "y"
      ],
      [
        "ĠM",
        "y"
      ],
      [
        "t",
        "w"
      ],
      [
        "Ġv",
        "oice"
      ],
      [
        "A",
        "G"
      ],
      [
        "b",
        "t"
      ],
      [
        "ĠL",
        "e"
      ],
      [
        "i",
        "z"
      ],
      [
        "on",
        "y"
      ],
      [
        "ra",
        "ce"
      ],
      [
        "Ġj",
        "ust"
      ],
      [
        "L",
        "U"
      ],
      [
        "IC",
        "K"
      ],
      [
        "ish",
        "ed"
      ],
      [
        "Ġon",
        "ce"
      ],
      [
        "fe",
        "ct"
      ],
      [
        "3",
        "0"
      ],
      [
        "Ġm",
        "atter"
      ],
      [
        "3",
        "1"
      ],
      [
        "Ġc",
        "ast"
      ],
      [
        "Ġre",
        "ason"
      ],
      [
        "u",
        "ch"
      ],
      [
        "Ġc",
        "rown"
      ],
      [
        "h",
        "am"
      ],
      [
        "O",
        "TH"
      ],
      [
        "W",
        "ill"
      ],
      [
        "Ġf",
        "am"
      ],
      [
        "Ġgent",
        "le"
      ],
      [
        "I",
        "D"
      ],
      [
        "Ġim",
        "p"
      ],
      [
        "us",
        "a"
      ],
      [
        "Ġserv",
        "ant"
      ],
      [
        "Ġv",
        "ill"
      ],
      [
        "Ġd",
        "ep"
      ],
      [
        "um",
        "ber"
      ],
      [
        "Sh",
        "all"
      ],
      [
        "Ġwr",
        "ong"
      ],
      [
        "ĠC",
        "ome"
      ],
      [
        "usa",
        "lem"
      ],
      [
        "ANT",
        "ON"
      ],
      [
        "Ġd",
        "rink"
      ],
      [
        "Ġsh",
        "ame"
      ],
      [
        "am",
        "p"
      ],
      [
        "Ġe",
        "vil"
      ],
      [
        "f",
        "ort"
      ],
      [
        "ĠC",
        "l"
      ],
      [
        "O",
        "ST"
      ],
      [
        "en",
        "er"
      ],
      [
        "Ġme",
        "an"
      ],
      [
        "oh",
        "n"
      ],
      [
        "P",
        "R"
      ],
      [
        "R",
        "ESS"
      ],
      [
        "Ġp",
        "ra"
      ],
      [
        "Ġsle",
        "ep"
      ],
      [
        "le",
        "t"
      ],
      [
        "ce",
        "ive"
      ],
      [
        "Ġsu",
        "n"
      ],
      [
        "Ġbre",
        "ak"
      ],
      [
        "ĠJud",
        "ah"
      ],
      [
        "Ġt",
        "en"
      ],
      [
        "Ġb",
        "ed"
      ],
      [
        "o",
        "ke"
      ],
      [
        "o",
        "int"
      ],
      [
        "Ġm",
        "aid"
      ],
      [
        "Ġt",
        "em"
      ],
      [
        "c",
        "om"
      ],
      [
        "Ġb",
        "id"
      ],
      [
        "ĠC",
        "aesar"
      ],
      [
        "Ġse",
        "nd"
      ],
      [
        "G",
        "O"
      ],
      [
        "M",
        "AR"
      ],
      [
        "Ġd",
        "ou"
      ],
      [
        "ĠI",
        "t"
      ],
      [
        "n",
        "ed"
      ],
      [
        "Ġto",
        "ld"
      ],
      [
        "ak",
        "en"
      ],
      [
        "r",
        "ist"
      ],
      [
        "Ġm",
        "outh"
      ],
      [
        "one",
        "y"
      ],
      [
        "Ġfl",
        "esh"
      ],
      [
        "H",
        "ave"
      ],
      [
        "Ġh",
        "ar"
      ],
      [
        "G",
        "o"
      ],
      [
        "d",
        "en"
      ],
      [
        "Ġh",
        "um"
      ],
      [
        "Ġm",
        "is"
      ],
      [
        "ĠH",
        "ow"
      ],
      [
        "Ġh",
        "our"
      ],
      [
        "Ġlet",
        "ter"
      ],
      [
        "d",
        "ay"
      ],
      [
        "R",
        "A"
      ],
      [
        "Ġbod",
        "y"
      ],
      [
        "3",
        "2"
      ],
      [
        "Th",
        "y"
      ],
      [
        "p",
        "l"
      ],
      [
        "Ġso",
        "ld"
      ],
      [
        "Ġst",
        "ri"
      ],
      [
        "ur",
        "y"
      ],
      [
        "ie",
        "ve"
      ],
      [
        "Ġh",
        "ence"
      ],
      [
        "ang",
        "er"
      ],
      [
        "if",
        "t"
      ],
      [
        "e",
        "ct"
      ],
      [
        "g",
        "er"
      ],
      [
        "N",
        "or"
      ],
      [
        "ĠTh",
        "at"
      ],
      [
        "C",
        "A"
      ],
      [
        "ĠF",
        "rance"
      ],
      [
        "Ġh",
        "elp"
      ],
      [
        "Ġbe",
        "a"
      ],
      [
        "Ġon",
        "ly"
      ],
      [
        "PR",
        "IN"
      ],
      [
        "A",
        "l"
      ],
      [
        "Ġfal",
        "se"
      ],
      [
        "As",
        "ide"
      ],
      [
        "u",
        "te"
      ],
      [
        "Ġf",
        "ight"
      ],
      [
        "Ġdo",
        "st"
      ],
      [
        "i",
        "ent"
      ],
      [
        "pe",
        "ct"
      ],
      [
        "ou",
        "d"
      ],
      [
        "at",
        "tle"
      ],
      [
        "ac",
        "t"
      ],
      [
        "Ġc",
        "apt"
      ],
      [
        "it",
        "ion"
      ],
      [
        "Ġind",
        "eed"
      ],
      [
        "L",
        "ES"
      ],
      [
        "Ġd",
        "est"
      ],
      [
        "EN",
        "RY"
      ],
      [
        "au",
        "l"
      ],
      [
        "I",
        "ST"
      ]
    ]
  }
}