{
  "version": "1.0",
  "truncation": null,
  "padding": null,
  "added_tokens": [
    {
      "id": 0,
      "content": "<unk>",
      "single_word": false,
      "lstrip": false,
      "rstrip": false,
      "normalized": false,
      "special": true
    }
  ],
  "normalizer": null,
  "pre_tokenizer": {
    "type": "ByteLevel",
    "add_prefix_space": false,
    "trim_offsets": true,
    "use_regex": true
  },
  "post_processor": null,
  "decoder": {
    "type": "ByteLevel",
    "add_prefix_space": true,
    "trim_offsets": true,
    "use_regex": true
  },
  "model": {
    "type": "BPE",
    "dropout": null,
    "unk_token": "<unk>",
    "continuing_subword_prefix": null,
    "end_of_word_suffix": null,
    "fuse_unk": false,
    "byte_fallback": false,
    "ignore_merges": false,
    "vocab": {
      "<unk>": 0,
      "!": 1,
      "\"": 2,
      "#": 3,
      "$": 4,
      "%": 5,
      "&": 6,
      "'": 7,
      "(": 8,
      ")": 9,
      "*": 10,
      "+": 11,
      ",": 12,
      "-": 13,
      ".": 14,
      "/": 15,
      "0": 16,
      "1": 17,
      "2": 18,
      "3": 19,
      "4": 20,
      "5": 21,
      "6": 22,
      "7": 23,
      "8": 24,
      "9": 25,
      ":": 26,
      ";": 27,
      "<": 28,
      "=": 29,
      ">": 30,
      "?": 31,
      "@": 32,
      "A": 33,
      "B": 34,
      "C": 35,
      "D": 36,
      "E": 37,
      "F": 38,
      "G": 39,
      "H": 40,
      "I": 41,
      "J": 42,
      "K": 43,
      "L": 44,
      "M": 45,
      "N": 46,
      "O": 47,
      "P": 48,
      "Q": 49,
      "R": 50,
      "S": 51,
      "T": 52,
      "U": 53,
      "V": 54,
      "W": 55,
      "X": 56,
      "Y": 57,
      "Z": 58,
      "[": 59,
      "\\": 60,
      "]": 61,
      "^": 62,
      "_": 63,
      "`": 64,
      "a": 65,
      "b": 66,
      "c": 67,
      "d": 68,
      "e": 69,
      "f": 70,
      "g": 71,
      "h": 72,
      "i": 73,
      "j": 74,
      "k": 75,
      "l": 76,
      "m": 77,
      "n": 78,
      "o": 79,
      "p": 80,
      "q": 81,
      "r": 82,
      "s": 83,
      "t": 84,
      "u": 85,
      "v": 86,
      "w": 87,
      "x": 88,
      "y": 89,
      "z": 90,
      "{": 91,
      "|": 92,
      "}": 93,
      "~": 94,
      "¡": 95,
      "¢": 96,
      "£": 97,
      "¤": 98,
      "¥": 99,
      "¦": 100,
      "§": 101,
      "¨": 102,
      "©": 103,
      "ª": 104,
      "«": 105,
      "¬": 106,
      "®": 107,
      "¯": 108,
      "°": 109,
      "±": 110,
      "²": 111,
      "³": 112,
      "´": 113,
      "µ": 114,
      "¶": 115,
      "·": 116,
      "¸": 117,
      "¹": 118,
      "º": 119,
      "»": 120,
      "¼": 121,
      "½": 122,
      "¾": 123,
      "¿": 124,
      "À": 125,
      "Á": 126,
      "Â": 127,
      "Ã": 128,
      "Ä": 129,
      "Å": 130,
      "Æ": 131,
      "Ç": 132,
      "È": 133,
      "É": 134,
      "Ê": 135,
      "Ë": 136,
      "Ì": 137,
      "Í": 138,
      "Î": 139,
      "Ï": 140,
      "Ð": 141,
      "Ñ": 142,
      "Ò": 143,
      "Ó": 144,
      "Ô": 145,
      "Õ": 146,
      "Ö": 147,
      "×": 148,
      "Ø": 149,
      "Ù": 150,
      "Ú": 151,
      "Û": 152,
      "Ü": 153,
      "Ý": 154,
      "Þ": 155,
      "ß": 156,
      "à": 157,
      "á": 158,
      "â": 159,
      "ã": 160,
      "ä": 161,
      "å": 162,
      "æ": 163,
      "ç": 164,
      "è": 165,
      "é": 166,
      "ê": 167,
      "ë": 168,
      "ì": 169,
      "í": 170,
      "î": 171,
      "ï": 172,
      "ð": 173,
      "ñ": 174,
      "ò": 175,
      "ó": 176,
      "ô": 177,
      "õ": 178,
      "ö": 179,
      "÷": 180,
      "ø": 181,
      "ù": 182,
      "ú": 183,
      "û": 184,
      "ü": 185,
      "ý": 186,
      "þ": 187,
      "ÿ": 188,
      "Ā": 189,
      "ā": 190,
      "Ă": 191,
      "ă": 192,
      "Ą": 193,
      "ą": 194,
      "Ć": 195,
      "ć": 196,
      "Ĉ": 197,
      "ĉ": 198,
      "Ċ": 199,
      "ċ": 200,
      "Č": 201,
      "č": 202,
      "Ď": 203,
      "ď": 204,
      "Đ": 205,
      "đ": 206,
      "Ē": 207,
      "ē": 208,
      "Ĕ": 209,
      "ĕ": 210,
      "Ė": 211,
      "ė": 212,
      "Ę": 213,
      "ę": 214,
      "Ě": 215,
      "ě": 216,
      "Ĝ": 217,
      "ĝ": 218,
      "Ğ": 219,
      "ğ": 220,
      "Ġ": 221,
      "ġ": 222,
      "Ģ": 223,
      "ģ": 224,
      "Ĥ": 225,
      "ĥ": 226,
      "Ħ": 227,
      "ħ": 228,
      "Ĩ": 229,
      "ĩ": 230,
      "Ī": 231,
      "ī": 232,
      "Ĭ": 233,
      "ĭ": 234,
      "Į": 235,
      "į": 236,
      "İ": 237,
      "ı": 238,
      "Ĳ": 239,
      "ĳ": 240,
      "Ĵ": 241,
      "ĵ": 242,
      "Ķ": 243,
      "ķ": 244,
      "ĸ": 245,
      "Ĺ": 246,
      "ĺ": 247,
      "Ļ": 248,
      "ļ": 249,
      "Ľ": 250,
      "ľ": 251,
      "Ŀ": 252,
      "ŀ": 253,
      "Ł": 254,
      "ł": 255,
      "Ń": 256,
      "Ġã": 257,
      "Ġãģ": 258,
      "th": 259,
      "ĠãĢ": 260,
      "Ġth": 261,
      "ãģ": 262,
      "ãĤ": 263,
      "Ġa": 264,
      "ĠãĢģ": 265,
      "ãĥ": 266,
      "Ġæ": 267,
      "Ġthe": 268,
      "Ġs": 269,
      "nd": 270,
      "Ġh": 271,
      "er": 272,
      "ou": 273,
      "in": 274,
      "Ġè": 275,
      "Ġw": 276,
      "ĠãĤ": 277,
      "Ġm": 278,
      "Ġo": 279,
      "Ġb": 280,
      "Ġå": 281,
      "Ġãĥ": 282,
      "re": 283,
      "is": 284,
      "Ġt": 285,
      "Ġç": 286,
      "ĠãĤĴ": 287,
      "ĠãĢĤ": 288,
      "en": 289,
      "ll": 290,
      "Ġf": 291,
      "Ġd": 292,
      "or": 293,
      "at": 294,
      "ãģĻ": 295,
      "Ġãģ¯": 296,
      "Ġand": 297,
      "Ġc": 298,
      "on": 299,
      "Ġof": 300,
      "Ġl": 301,
      "es": 302,
      "ar": 303,
      "Ġãģ¾": 304,
      "ĠãģĹ": 305,
      "Ġãģ®": 306,
      "Ġãģ¾ãģĻ": 307,
      "âĢ": 308,
      "Ġn": 309,
      "an": 310,
      "Ġp": 311,
      "ed": 312,
      "Ġto": 313,
      "Ġy": 314,
      "ãĥ¼": 315,
      "ªŀ": 316,
      "Ġãģ§": 317,
      "Ġé": 318,
      "ĠI": 319,
      "âĢĻ": 320,
      "it": 321,
      "Ġg": 322,
      "ve": 323,
      "ing": 324,
      "ĠA": 325,
      "ãģĦ": 326,
      "Ĺ¥": 327,
      "Ġèªŀ": 328,
      "Ġä": 329,
      "ãĥ¼ãĤ": 330,
      "om": 331,
      "Ġyou": 332,
      "st": 333,
      "Ġin": 334,
      "Ġbe": 335,
      "Ġwi": 336,
      "ow": 337,
      "el": 338,
      "Ġsh": 339,
      "Th": 340,
      "Ġha": 341,
      "ĸĩ": 342,
      "ľ¬": 343,
      "ãĤ¹": 344,
      "Ġãģ¦": 345,
      "ãĤ¤": 346,
      "Ġæĸĩ": 347,
      "Ġãģ¨": 348,
      "ķä": 349,
      "Ġhe": 350,
      "Ġu": 351,
      "Ġno": 352,
      "al": 353,
      "ch": 354,
      "ay": 355,
      "od": 356,
      "ce": 357,
      "im": 358,
      "Ġthat": 359,
      "le": 360,
      "Ġwh": 361,
      "ĠB": 362,
      "Ġ2": 363,
      "ld": 364,
      "se": 365,
      "ir": 366,
      "all": 367,
      "gh": 368,
      "Ġ-": 369,
      "æľ¬": 370,
      "··": 371,
      "¾¡": 372,
      "èĦ": 373,
      "ãĥĪ": 374,
      "èĦĪ": 375,
      "åĲ": 376,
      "ãĤī": 377,
      "åĲĪ": 378,
      "Ġãģª": 379,
      "ĠæĹ¥": 380,
      "Ġæ··": 381,
      "Ġãĥĩ": 382,
      "Ġè©": 383,
      "Ġéĩ": 384,
      "Ġä¸": 385,
      "ıãģ": 386,
      "ķä¾¡": 387,
      "ĠæĸĩèĦĪ": 388,
      "ĠæĹ¥æľ¬": 389,
      "ãĥ¼ãĤ¿": 390,
      "Ġè©ķä¾¡": 391,
      "Ġãĥĩãĥ¼ãĤ¿": 392,
      "Ġmy": 393,
      "et": 394,
      "nt": 395,
      "ut": 396,
      "Ġfor": 397,
      "id": 398,
      "Ġis": 399,
      "Ġe": 400,
      "as": 401,
      "te": 402,
      "Ġme": 403,
      "Ġnot": 404,
      "Ġwith": 405,
      "ere": 406,
      "Ġhis": 407,
      "ke": 408,
      "oc": 409,
      "am": 410,
      "ĠĠ": 411,
      "ad": 412,
      "Ġit": 413,
      "ent": 414,
      "Ġde": 415,
      "PE": 416,
      "our": 417,
      "Ġv": 418,
      "ri": 419,
      "ĠM": 420,
      "ther": 421,
      "ght": 422,
      "ra": 423,
      "Ġhim": 424,
      "Ġthou": 425,
      "48": 426,
      "Ġ20": 427,
      "æĹ¥": 428,
      "åŃ": 429,
      "ªŃ": 430,
      "½Ļ": 431,
      "å½Ļ": 432,
      "ĭ±": 433,
      "ļĦ": 434,
      "ãģı": 435,
      "ãĥ«": 436,
      "ãĥ³": 437,
      "åŃĹ": 438,
      "åĪ": 439,
      "ãģĳ": 440,
      "Ġãģĭ": 441,
      "Ġãģķ": 442,
      "Ġèĭ±": 443,
      "ĠãĥŃ": 444,
      "ĠçĶ": 445,
      "Ġéĩı": 446,
      "ãģ¿": 447,
      "Ġæ®": 448,
      "Ġè¨": 449,
      "ĠãĥĨ": 450,
      "ĠBPE": 451,
      "Ġä¸Ĭ": 452,
      "©ãĤ¤": 453,
      "ãĤ¹ãĥĪ": 454,
      "Ġ2048": 455,
      "Ġæ··åĲĪ": 456,
      "Ġãģ§ãģĻ": 457,
      "ĠãģĭãĤī": 458,
      "Ġèªŀå½Ļ": 459,
      "Wh": 460,
      "Ġby": 461,
      "Ġshall": 462,
      "ĠAnd": 463,
      "ĠL": 464,
      "ro": 465,
      "and": 466,
      "ac": 467,
      "ore": 468,
      "ver": 469,
      "Ġk": 470,
      "Ġre": 471,
      "Ġst": 472,
      "Ġcon": 473,
      "ab": 474,
      "Ġon": 475,
      "ord": 476,
      "Ġyour": 477,
      "ur": 478,
      "And": 479,
      "ain": 480,
      "Ġas": 481,
      "us": 482,
      "Ġhave": 483,
      "ai": 484,
      "ome": 485,
      "Ġle": 486,
      "Ġli": 487,
      "ĠS": 488,
      "est": 489,
      "Ġwe": 490,
      "Ġthis": 491,
      "Ġdo": 492,
      "Ġall": 493,
      "ly": 494,
      "ion": 495,
      "Ġthy": 496,
      "Ġwill": 497,
      "The": 498,
      "OR": 499,
      "ess": 500,
      "Ġgo": 501,
      "Ġse": 502,
      "Ġan": 503,
      "nto": 504,
      "ĠG": 505,
      "Ġso": 506,
      "Ġ1": 507,
      "ould": 508,
      "Ġthem": 509,
      "Ġthey": 510,
      "Ġher": 511,
      "Ġlo": 512,
      "Ġunto": 513,
      "ake": 514,
      "Ġup": 515,
      "ich": 516,
      "SC": 517,
      "¿½": 518,
      "Ġthee": 519,
      "ĠH": 520,
      "rom": 521,
      "il": 522,
      "ter": 523,
      "ast": 524,
      "ĠC": 525,
      "ge": 526,
      "xt": 527,
      "Ġch": 528,
      "28": 529,
      "II": 530,
      "UT": 531,
      "ru": 532,
      "out": 533,
      "Ġdep": 534,
      "ard": 535,
      "Ġgen": 536,
      "Ġsp": 537,
      "ill": 538,
      "Ġ_": 539,
      "Ġbut": 540,
      "vel": 541,
      "Ġ6": 542,
      "ORD": 543,
      "Ġman": 544,
      "ven": 545,
      "Ġ8": 546,
      "Ġwas": 547,
      "Ġmod": 548,
      "ĠMac": 549,
      "Ġconte": 550,
      "Ġloc": 551,
      "Ġare": 552,
      "ear": 553,
      "Ġ25": 554,
      "EN": 555,
      "Ġlevel": 556,
      "Ġdepth": 557,
      "Ġmodel": 558,
      "ãĤ¿": 559,
      "ãģ®": 560,
      "ãģķ": 561,
      "ãģĹ": 562,
      "Ġvoc": 563,
      "èªŀ": 564,
      "è¨": 565,
      "ãģª": 566,
      "ãĥĩ": 567,
      "éĢ": 568,
      "ãĤ«": 569,
      "çļĦ": 570,
      "èªŃ": 571,
      "ãģĵ": 572,
      "ãĤĮ": 573,
      "ãĥ¢": 574,
      "¡Į": 575,
      "¢º": 576,
      "¢ĥ": 577,
      "£ľ": 578,
      "«ł": 579,
      "¬¡": 580,
      "®Ĺ": 581,
      "®ļ": 582,
      "¯¾": 583,
      "³ª": 584,
      "¶ļ": 585,
      "·´": 586,
      "¸¬": 587,
      "ºĪ": 588,
      "»¸": 589,
      "¼Ŀ": 590,
      "½ľ": 591,
      "¿ľ": 592,
      "ä¼Ŀ": 593,
      "åĸ": 594,
      "åľ": 595,
      "å¢ĥ": 596,
      "å®ļ": 597,
      "å¿ľ": 598,
      "æĪ": 599,
      "æĸ": 600,
      "æ¸¬": 601,
      "çĤ": 602,
      "çı": 603,
      "çķ": 604,
      "ç«ł": 605,
      "ç®Ĺ": 606,
      "ç·´": 607,
      "è£ľ": 608,
      "è³ª": 609,
      "é¡Į": 610,
      "ĠUT": 611,
      "Ģ§": 612,
      "ĢĻ": 613,
      "ģº": 614,
      "Ĩį": 615,
      "ī¯": 616,
      "ī±": 617,
      "įģ": 618,
      "ı¥": 619,
      "Ĵ°": 620,
      "ĵģ": 621,
      "Ķ¹": 622,
      "ķ°": 623,
      "ķ·": 624,
      "ķı": 625,
      "ĸİ": 626,
      "Ľ®": 627,
      "Ľº": 628,
      "ŁŃ": 629,
      "ãģĮ": 630,
      "ãĤ°": 631,
      "ãĤ»": 632,
      "ãĥĥ": 633,
      "ãĥĬ": 634,
      "ãĥĳ": 635,
      "ãĥĹ": 636,
      "ĠAI": 637,
      "åĪĨ": 638,
      "Ġ128": 639,
      "Ġ256": 640,
      "è¨¼": 641,
      "éĢļ": 642,
      "åĸĦ": 643,
      "åľ¨": 644,
      "æĪĲ": 645,
      "æĸ¹": 646,
      "çĤ¹": 647,
      "çı¾": 648,
      "çķª": 649,
      "ªį": 650,
      "¼¢": 651,
      "åĬ": 652,
      "åĮ": 653,
      "èªį": 654,
      "éļ": 655,
      "ĪĹ": 656,
      "Ġãģ«": 657,
      "Ġãģ²": 658,
      "ĠãģĦ": 659,
      "Ġãģĵ": 660,
      "ĠãģĽ": 661,
      "Ġãģł": 662,
      "Ġæ¬¡": 663,
      "ĠæĢ§": 664,
      "Ġæī±": 665,
      "ĠæĶ¹": 666,
      "Ġæķ°": 667,
      "ĠèªŃ": 668,
      "Ġè»¸": 669,
      "Ġèī¯": 670,
      "ĠãĤ«": 671,
      "ĠãĤ³": 672,
      "ĠãĤĤ": 673,
      "ĠãĤĮ": 674,
      "Ġåĭ": 675,
      "Ġå¯¾": 676,
      "ĠåĢĻ": 677,
      "ĠåĨį": 678,
      "Ġåįģ": 679,
      "Ġåı¥": 680,
      "Ġåĵģ": 681,
      "Ġåķı": 682,
      "ĠåĽº": 683,
      "ĠåĪĹ": 684,
      "Ġãĥ¢": 685,
      "Ġãĥı": 686,
      "ĠçļĦ": 687,
      "Ġç¢º": 688,
      "Ġç¶ļ": 689,
      "ĠçĴ°": 690,
      "Ġçĸİ": 691,
      "ĠçŁŃ": 692,
      "Ġéģº": 693,
      "Ġéķ·": 694,
      "ĠäºĪ": 695,
      "Ġä¸¡": 696,
      "ĠçĶ¨": 697,
      "ĠçĶŁ": 698,
      "Ġæ®ĭ": 699,
      "Ġè¨Ī": 700,
      "SCII": 701,
      "ĠUTF": 702,
      "åĬł": 703,
      "åĮĸ": 704,
      "éļİ": 705,
      "¤ľ": 706,
      "¦ĸ": 707,
      "µĦ": 708,
      "»Ĭ": 709,
      "è¦ĸ": 710,
      "ľĢ": 711,
      "ãĤ·": 712,
      "ãĤŃ": 713,
      "ãĥ¥": 714,
      "ãĥ©ãĤ¤": 715,
      "ĠçĽ®": 716,
      "åĪĿ": 717,
      "Ġbyte": 718,
      "Ġlocal": 719,
      "łãģķ": 720,
      "ãĤıãģ": 721,
      "Ġæ¼¢": 722,
      "ĠçµĦ": 723,
      "ãĥ¼ãĤ«": 724,
      "ãĥ¼ãĤ¯": 725,
      "ķä½ľ": 726,
      "ãĤīãģĮ": 727,
      "Ġvocab": 728,
      "ãĥĩãĥ«": 729,
      "èªŃçĤ¹": 730,
      "ãģĵãĤĮ": 731,
      "ãĤ»ãĥ³": 732,
      "ãĤıãģĽ": 733,
      "Ģ²": 734,
      "ŃĲ": 735,
      "Ġãģıãģ": 736,
      "Ġæľ¬": 737,
      "Ġæ¤ľ": 738,
      "ĠæľĢ": 739,
      "Ġè¿½": 740,
      "ĠãĤ¹": 741,
      "Ġå°": 742,
      "ĠåŃĲ": 743,
      "ĠãĥĲ": 744,
      "Ġãĥĳ": 745,
      "Ġãĥ©ãĤ¤": 746,
      "ĠéĢ²": 747,
      "Ġä»Ĭ": 748,
      "Ġæĸĩç«ł": 749,
      "ĠãģªãģĦ": 750,
      "Ġãģªãģı": 751,
      "Ġæ··åľ¨": 752,
      "Ġéĩį": 753,
      "Ġèĭ±æĹ¥": 754,
      "ĠãĥŃãĤ°": 755,
      "Ġæ®µ": 756,
      "Ġè¨ĵ": 757,
      "Ġgenai": 758,
      "Ġãģĵãģ®": 759,
      "Ġæī±ãģĦ": 760,
      "ĠæĶ¹åĸĦ": 761,
      "Ġæķ°åŃĹ": 762,
      "Ġèī¯ãģĦ": 763,
      "ĠãĤ³ãĥ¼": 764,
      "Ġåĭķä½ľ": 765,
      "Ġå¯¾å¿ľ": 766,
      "ĠåĢĻè£ľ": 767,
      "ĠåĨįçı¾": 768,
      "ĠåįģåĪĨ": 769,
      "Ġåĵģè³ª": 770,
      "Ġåķıé¡Į": 771,
      "ĠåĽºå®ļ": 772,
      "Ġãĥıãĥĥ": 773,
      "Ġç¶ļãģĳ": 774,
      "ĠçĴ°å¢ĥ": 775,
      "ĠçĸİéĢļ": 776,
      "ĠçŁŃãģĦ": 777,
      "Ġéģºä¼Ŀ": 778,
      "ĠäºĪæ¸¬": 779,
      "Ġä¸¡æĸ¹": 780,
      "ĠçĶŁæĪĲ": 781,
      "Ġæ®ĭãģĹ": 782,
      "Ġè¨Īç®Ĺ": 783,
      "ãĤ¤ãĥĪ": 784,
      "ãĤ¤ãĥĹ": 785,
      "ıãģķ": 786,
      "Ġãģłãģĳ": 787,
      "Ġç¢ºèªį": 788,
      "ĠçĽ®çļĦ": 789,
      "Ġèĭ±èªŀ": 790,
      "Ġcontext": 791,
      "ãĤ«ãĥĬ": 792,
      "ãĥ¢ãĥ¼ãĤ¯": 793,
      "ãĥ©ãĤ¤ãĥ³": 794,
      "łãģķãģĦ": 795,
      "Ġæ¼¢åŃĹ": 796,
      "ãĥ¼ãĤ«ãĥ«": 797,
      "ãĤīãģĮãģª": 798,
      "ĠASCII": 799,
      "åĲĪãĤıãģĽ": 800,
      "ĠãĥĨãĤ¹ãĥĪ": 801,
      "ĠèªŃãģ¿": 802,
      "ĠãĤ«ãĤ¿": 803,
      "Ġåı¥èªŃçĤ¹": 804,
      "Ġãĥ¢ãĥĩãĥ«": 805,
      "Ġæľ¬çķª": 806,
      "Ġæ¤ľè¨¼": 807,
      "Ġå°ıãģķ": 808,
      "Ġè¨ĵç·´": 809,
      "ãĥĳãĤ¹": 810,
      "ãĤ·ãĥ¥": 811,
      "ãĤ»ãĥ³ãĤ¹": 812,
      "Ġä»ĬæĹ¥": 813,
      "ãĤŃãĤ¹ãĥĪ": 814,
      "ĠçµĦãģ¿": 815,
      "Ġè¿½åĬł": 816,
      "ĠéĢ²åĮĸ": 817,
      "Ġæ®µéļİ": 818,
      "ĠãĥŃãĥ¼ãĤ«ãĥ«": 819,
      "Ġãģ²ãĤīãģĮãģª": 820,
      "ĠãģıãģłãģķãģĦ": 821,
      "ĠæľĢåĪĿ": 822,
      "Ġéĩįè¦ĸ": 823,
      "Ġå°ıãģķãģı": 824,
      "ĠãĥĲãĤ¤ãĥĪ": 825,
      "ĠãĥĳãĤ¤ãĥĹ": 826,
      "ĠãĤ¹ãĥ¢ãĥ¼ãĤ¯": 827,
      "Ġãĥ©ãĤ¤ãĤ»ãĥ³ãĤ¹": 828,
      "ĠãĤ³ãĥ¼ãĥĳãĤ¹": 829,
      "ĠãĥıãĥĥãĤ·ãĥ¥": 830,
      "ĠãĥĨãĤŃãĤ¹ãĥĪ": 831,
      "ĠãĤ«ãĤ¿ãĤ«ãĥĬ": 832,
      "ĠçµĦãģ¿åĲĪãĤıãģĽ": 833,
      "ĠãĥĳãĤ¤ãĥĹãĥ©ãĤ¤ãĥ³": 834,
      "Ġsu": 835,
      "ĠE": 836,
      "ight": 837,
      "ame": 838,
      "if": 839,
      "ea": 840,
      "ĠJ": 841,
      "au": 842,
      "ine": 843,
      "ic": 844,
      "Ġfrom": 845,
      "Ġtheir": 846,
      "ĠP": 847,
      "Ġthere": 848,
      "em": 849,
      "ot": 850,
      "ant": 851,
      "ers": 852,
      "ell": 853,
      "AN": 854,
      "ĠTh": 855,
      "ĠLORD": 856,
      "Ġsa": 857,
      "Ġfa": 858,
      "Ġkn": 859,
      "US": 860,
      "[_": 861,
      "AR": 862,
      "art": 863,
      "To": 864,
      "Ġwhich": 865,
      "fore": 866,
      "one": 867,
      "IN": 868,
      "ĠF": 869,
      "ol": 870,
      "Ġne": 871,
      "Ġat": 872,
      "ER": 873,
      "Ġam": 874,
      "ong": 875,
      "sel": 876,
      "Ġour": 877,
      "Ġcom": 878,
      "ous": 879,
      "._": 880,
      "ive": 881,
      "Ġshe": 882,
      "fe": 883,
      "ct": 884,
      "res": 885,
      "ĠĠĠĠ": 886,
      "ind": 887,
      "._]": 888,
      "the": 889,
      "qu": 890,
      "ĠO": 891,
      "ok": 892,
      "Ġsay": 893,
      "op": 894,
      "Ġout": 895,
      "ie": 896,
      "ES": 897,
      "Ġupon": 898,
      "ath": 899,
      "Ġmu": 900,
      "os": 901,
      "ĠD": 902,
      "Ġbl": 903,
      "own": 904,
      "Ġwere": 905,
      "That": 906,
      "ood": 907,
      "ON": 908,
      "ish": 909,
      "Ġgood": 910,
      "Ġhath": 911,
      "rou": 912,
      "ĠGod": 913,
      "gain": 914,
      "ep": 915,
      "Ġor": 916,
      "ry": 917,
      "What": 918,
      "ose": 919,
      "old": 920,
      "Ġsaid": 921,
      "Ġwhat": 922,
      "Ġwhen": 923,
      "Ġsw": 924,
      "ĠR": 925,
      "Ġone": 926,
      "Ġus": 927,
      "Ġcome": 928,
      "Ġson": 929,
      "Ġwor": 930,
      "Ġal": 931,
      "ren": 932,
      "ost": 933,
      "ST": 934,
      "Ġlord": 935,
      "pp": 936,
      "Ġar": 937,
      "pt": 938,
      "ate": 939,
      "ave": 940,
      "Ġpl": 941,
      "Ġknow": 942,
      "ul": 943,
      "Ġif": 944,
      "Ġmore": 945,
      "ak": 946,
      "Ġday": 947,
      "to": 948,
      "Ġhad": 949,
      "Ġpr": 950,
      "ĠThe": 951,
      "ure": 952,
      "Ġlove": 953,
      "self": 954,
      "Ġnow": 955,
      "ings": 956,
      "are": 957,
      "um": 958,
      "ation": 959,
      "Ġwould": 960,
      "Ġhand": 961,
      "ves": 962,
      "Ġagain": 963,
      "Ġlet": 964,
      "nter": 965,
      "Ġye": 966,
      "ĠT": 967,
      "âĢĶ": 968,
      "ah": 969,
      "Ġoff": 970,
      "Ġj": 971,
      "ity": 972,
      "reat": 973,
      "Ġmad": 974,
      "ĠN": 975,
      "Ġcan": 976,
      "Ġthen": 977,
      "ies": 978,
      "ue": 979,
      "ild": 980,
      "Ġmay": 981,
      "Ġdid": 982,
      "Ġthan": 983,
      "of": 984,
      "ass": 985,
      "ink": 986,
      "ness": 987,
      "ice": 988,
      "But": 989,
      "AL": 990,
      "Ġmake": 991,
      "ance": 992,
      "Ġsee": 993,
      "ence": 994,
      "OL": 995,
      "ith": 996,
      "Ġever": 997,
      "ide": 998,
      "ort": 999,
      "Ex": 1000,
      "ĠâĢĻ": 1001,
      "ig": 1002,
      "Ġshould": 1003,
      "ĠIs": 1004,
      "un": 1005,
      "Ġab": 1006,
      "Ġking": 1007,
      "ist": 1008,
      "Ġfo": 1009,
      "Ġbo": 1010,
      "end": 1011,
      "urn": 1012,
      "ph": 1013,
      "Ġtru": 1014,
      "Ġun": 1015,
      "Ġlike": 1016,
      "orn": 1017,
      "ise": 1018,
      "ouse": 1019,
      "ĠK": 1020,
      "ĠW": 1021,
      "alt": 1022,
      "ound": 1023,
      "Ġpro": 1024,
      "Ġfather": 1025,
      "Ġsir": 1026,
      "ud": 1027,
      "Ġtw": 1028,
      "As": 1029,
      "ire": 1030,
      "Ġhere": 1031,
      "Ġbre": 1032,
      "ck": 1033,
      "Ġmen": 1034,
      "eth": 1035,
      "sh": 1036,
      "ime": 1037,
      "Ġwell": 1038,
      "IO": 1039,
      "row": 1040,
      "For": 1041,
      "Ġheart": 1042,
      "Ġaf": 1043,
      "LE": 1044,
      "Ġr": 1045,
      "You": 1046,
      "eak": 1047,
      "Ġfl": 1048,
      "erv": 1049,
      "TH": 1050,
      "ble": 1051,
      "Ġear": 1052,
      "Ġey": 1053,
      "Ġthese": 1054,
      "Ġbefore": 1055,
      "rael": 1056,
      "RO": 1057,
      "Ġchild": 1058,
      "Ġen": 1059,
      "ING": 1060,
      "Ġhouse": 1061,
      "ither": 1062,
      "Ġinto": 1063,
      "Ġgreat": 1064,
      "Ġqu": 1065,
      "way": 1066,
      "ĠWh": 1067,
      "other": 1068,
      "Ġpe": 1069,
      "CH": 1070,
      "nder": 1071,
      "Ġmade": 1072,
      "ount": 1073,
      "ag": 1074,
      "wn": 1075,
      "EL": 1076,
      "Ġgive": 1077,
      "ment": 1078,
      "ĠBut": 1079,
      "Ġmust": 1080,
      "Ġri": 1081,
      "Ġword": 1082,
      "ople": 1083,
      "Ġdis": 1084,
      "ĠIsrael": 1085,
      "Ġyet": 1086,
      "My": 1087,
      "ace": 1088,
      "ber": 1089,
      "Ġcame": 1090,
      "IA": 1091,
      "ĠĠĠ": 1092,
      "ap": 1093,
      "ng": 1094,
      "Ġwhere": 1095,
      "ause": 1096,
      "igh": 1097,
      "Ġtake": 1098,
      "Ġcomm": 1099,
      "be": 1100,
      "Ġsuch": 1101,
      "Ġsome": 1102,
      "Ġmine": 1103,
      "Ġspeak": 1104,
      "Ġhea": 1105,
      "Ġshalt": 1106,
      "Ġro": 1107,
      "Ġ[_": 1108,
      "ack": 1109,
      "IR": 1110,
      "red": 1111,
      "Ġland": 1112,
      "ree": 1113,
      "ick": 1114,
      "Ġex": 1115,
      "he": 1116,
      "Ġtime": 1117,
      "KING": 1118,
      "age": 1119,
      "ite": 1120,
      "ward": 1121,
      "Ġbr": 1122,
      "Ġpeople": 1123,
      "Ġhon": 1124,
      "Ġany": 1125,
      "ang": 1126,
      "He": 1127,
      "IUS": 1128,
      "LO": 1129,
      "eet": 1130,
      "Ġhast": 1131,
      "so": 1132,
      "ull": 1133,
      "Ġbro": 1134,
      "unt": 1135,
      "Ġhear": 1136,
      "Ġtoo": 1137,
      "ved": 1138,
      "aught": 1139,
      "ery": 1140,
      "Ġra": 1141,
      "itt": 1142,
      "ock": 1143,
      "eld": 1144,
      "Ġagainst": 1145,
      "ans": 1146,
      "ip": 1147,
      "aith": 1148,
      "ress": 1149,
      "Ġchildren": 1150,
      "Ġdes": 1151,
      "ust": 1152,
      "ful": 1153,
      "Ġdown": 1154,
      "Ġcall": 1155,
      "Ġhow": 1156,
      "ign": 1157,
      "If": 1158,
      "ach": 1159,
      "11": 1160,
      "10": 1161,
      "Ġpo": 1162,
      "Ġwho": 1163,
      "Ġgra": 1164,
      "Ġother": 1165,
      "cc": 1166,
      "ile": 1167,
      "thing": 1168,
      "io": 1169,
      "oul": 1170,
      "With": 1171,
      "Enter": 1172,
      "ĠFor": 1173,
      "Ġart": 1174,
      "Ġevery": 1175,
      "ady": 1176,
      "ff": 1177,
      "ĠLord": 1178,
      "Ġnor": 1179,
      "ĠKing": 1180,
      "ĠHe": 1181,
      "Ġbet": 1182,
      "Ġblood": 1183,
      "Ġname": 1184,
      "Ġco": 1185,
      "Ġtwo": 1186,
      "not": 1187,
      "Ġpart": 1188,
      "Ġserv": 1189,
      "âĢľ": 1190,
      "Ġaway": 1191,
      "In": 1192,
      "Ġfri": 1193,
      "Ġheaven": 1194,
      "Ġmuch": 1195,
      "Ġlife": 1196,
      "hold": 1197,
      "Ġway": 1198,
      "Ġthink": 1199,
      "Ġcl": 1200,
      "Ġdeath": 1201,
      "Ġown": 1202,
      "Ġlook": 1203,
      "Ġpri": 1204,
      "ase": 1205,
      "ears": 1206,
      "Ġput": 1207,
      "Ġper": 1208,
      "aster": 1209,
      "Ġeven": 1210,
      "ark": 1211,
      "Ġafter": 1212,
      "Ġke": 1213,
      "ANT": 1214,
      "Ġsc": 1215,
      "ARD": 1216,
      "ft": 1217,
      "Ġpass": 1218,
      "Ġtell": 1219,
      "ince": 1220,
      "ee": 1221,
      "Ġeyes": 1222,
      "AM": 1223,
      "av": 1224,
      "Ġover": 1225,
      "Ġoffer": 1226,
      "Ġmight": 1227,
      "irst": 1228,
      "13": 1229,
      "No": 1230,
      "oth": 1231,
      "Ġmost": 1232,
      "Ġsl": 1233,
      "Ġstr": 1234,
      "Ġdoth": 1235,
      "Ġfriend": 1236,
      "12": 1237,
      "les": 1238,
      "eunt": 1239,
      "sw": 1240,
      "14": 1241,
      "Thou": 1242,
      "IC": 1243,
      "entle": 1244,
      "aw": 1245,
      "Be": 1246,
      "ENE": 1247,
      "Ġnight": 1248,
      "Ġnever": 1249,
      "ESS": 1250,
      "aid": 1251,
      "ious": 1252,
      "lt": 1253,
      "ĠEnter": 1254,
      "âĢĿ": 1255,
      "IL": 1256,
      "Ġpre": 1257,
      "Why": 1258,
      "pe": 1259,
      "Ġwom": 1260,
      "Exeunt": 1261,
      "Of": 1262,
      "ied": 1263,
      "Ġdone": 1264,
      "per": 1265,
      "led": 1266,
      "ty": 1267,
      "How": 1268,
      "Ġwar": 1269,
      "Ġpray": 1270,
      "for": 1271,
      "ĠĠĠĠĠĠĠĠ": 1272,
      "Ġthine": 1273,
      "Ġfair": 1274,
      "Ġwr": 1275,
      "Exit": 1276,
      "ew": 1277,
      "This": 1278,
      "Ġple": 1279,
      "Ġfear": 1280,
      "15": 1281,
      "Ġhonour": 1282,
      "Is": 1283,
      "Ġbeg": 1284,
      "ius": 1285,
      "So": 1286,
      "AT": 1287,
      "Ġbec": 1288,
      "Ġapp": 1289,
      "Ġrem": 1290,
      "Which": 1291,
      "man": 1292,
      "Ġad": 1293,
      "ĠV": 1294,
      "Ġearth": 1295,
      "16": 1296,
      "Ġhead": 1297,
      "ĠThen": 1298,
      "ĠBe": 1299,
      "able": 1300,
      "ĠWhat": 1301,
      "ia": 1302,
      "iv": 1303,
      "Ġru": 1304,
      "Ġwent": 1305,
      "Ġsweet": 1306,
      "Ġset": 1307,
      "Ġgl": 1308,
      "wh": 1309,
      "ene": 1310,
      "Ġho": 1311,
      "UC": 1312,
      "ï¿½": 1313,
      "Ġvery": 1314,
      "Ġalso": 1315,
      "Ġsm": 1316,
      "LA": 1317,
      "ne": 1318,
      "Ġacc": 1319,
      "Ġforth": 1320,
      "Ġbrother": 1321,
      "Ġold": 1322,
      "Ġbring": 1323,
      "orrow": 1324,
      "ants": 1325,
      "ĠY": 1326,
      "Ġsoul": 1327,
      "18": 1328,
      "Ġplace": 1329,
      "eed": 1330,
      "Ġthings": 1331,
      "Ġstand": 1332,
      "ower": 1333,
      "Ġworld": 1334,
      "Ġfirst": 1335,
      "Ġwat": 1336,
      "rought": 1337,
      "Ġbeen": 1338,
      "Ġgentle": 1339,
      "ove": 1340,
      "Ġim": 1341,
      "Ġend": 1342,
      "Ġbear": 1343,
      "SE": 1344,
      "well": 1345,
      "Ġsons": 1346,
      "ert": 1347,
      "Ġcomp": 1348,
      "Ġdaught": 1349,
      "19": 1350,
      "ield": 1351,
      "Ġtrue": 1352,
      "ond": 1353,
      "Ġmar": 1354,
      "rown": 1355,
      "Ġkeep": 1356,
      "17": 1357,
      "llow": 1358,
      "Ġpres": 1359,
      "Ġcannot": 1360,
      "eace": 1361,
      "oses": 1362,
      "ites": 1363,
      "20": 1364,
      "Ġarm": 1365,
      "Ġdead": 1366,
      "Ġmany": 1367,
      "It": 1368,
      "ian": 1369,
      "rough": 1370,
      "ks": 1371,
      "Ġsaying": 1372,
      "Ġcour": 1373,
      "FF": 1374,
      "21": 1375,
      "atter": 1376,
      "erefore": 1377,
      "ather": 1378,
      "land": 1379,
      "uke": 1380,
      "less": 1381,
      "ub": 1382,
      "ĠIf": 1383,
      "tis": 1384,
      "Ġmer": 1385,
      "vil": 1386,
      "Ġcommand": 1387,
      "We": 1388,
      "oh": 1389,
      "und": 1390,
      "Ġunder": 1391,
      "oy": 1392,
      "een": 1393,
      "ces": 1394,
      "its": 1395,
      "Sh": 1396,
      "Ġwife": 1397,
      "22": 1398,
      "Ġboth": 1399,
      "Ġthus": 1400,
      "aint": 1401,
      "ail": 1402,
      "ern": 1403,
      "swer": 1404,
      "ons": 1405,
      "Ġlong": 1406,
      "By": 1407,
      "When": 1408,
      "ors": 1409,
      "Ġsin": 1410,
      "SCENE": 1411,
      "Ġthose": 1412,
      "Ġtherefore": 1413,
      "Ġtri": 1414,
      "AC": 1415,
      "IRST": 1416,
      "int": 1417,
      "Ġwhom": 1418,
      "FIRST": 1419,
      "Ġturn": 1420,
      "Ġpur": 1421,
      "Ġrep": 1422,
      "ĠCh": 1423,
      "selves": 1424,
      "iver": 1425,
      "Ġdel": 1426,
      "Ġbeing": 1427,
      "Ġanswer": 1428,
      "ction": 1429,
      "CA": 1430,
      "ĠâĢľ": 1431,
      "Ġthought": 1432,
      "PH": 1433,
      "UR": 1434,
      "ving": 1435,
      "Ġhimself": 1436,
      "alk": 1437,
      "Or": 1438,
      "sand": 1439,
      "ĠMoses": 1440,
      "men": 1441,
      "Ġent": 1442,
      "cene": 1443,
      "iss": 1444,
      "Where": 1445,
      "Ġwords": 1446,
      "Ġface": 1447,
      "Ġnew": 1448,
      "Ġlive": 1449,
      "ret": 1450,
      "ely": 1451,
      "TI": 1452,
      "23": 1453,
      "Ġyoung": 1454,
      "Ġcont": 1455,
      "ens": 1456,
      "Ġpoor": 1457,
      "DU": 1458,
      "Ġbrought": 1459,
      "Ġdays": 1460,
      "Ġdie": 1461,
      "Ġcould": 1462,
      "rie": 1463,
      "Let": 1464,
      "Tis": 1465,
      "ried": 1466,
      "QU": 1467,
      "Ġfind": 1468,
      "Ġgod": 1469,
      "Ġabout": 1470,
      "Ġleave": 1471,
      "cy": 1472,
      "Ġheard": 1473,
      "Ġrest": 1474,
      "Ġfell": 1475,
      "Ġsent": 1476,
      "ĠSh": 1477,
      "Ġfool": 1478,
      "24": 1479,
      "Ġbu": 1480,
      "Ġchar": 1481,
      "Ġthing": 1482,
      "ough": 1483,
      "oice": 1484,
      "Ġeat": 1485,
      ".]": 1486,
      "ever": 1487,
      "Who": 1488,
      "Ġgi": 1489,
      "Ġwo": 1490,
      "ittle": 1491,
      "Ġthousand": 1492,
      "Ġnothing": 1493,
      "Ġsle": 1494,
      "dom": 1495,
      "RI": 1496,
      "Ġfall": 1497,
      "ets": 1498,
      "Come": 1499,
      "Ġlaw": 1500,
      "Ġpriest": 1501,
      "Ġsword": 1502,
      "els": 1503,
      "ob": 1504,
      "Ġbel": 1505,
      "Ġstill": 1506,
      "Ay": 1507,
      "gy": 1508,
      "Ġfire": 1509,
      "Ġcons": 1510,
      "Ġdaughter": 1511,
      "ENT": 1512,
      "Ġbetter": 1513,
      "Ġtre": 1514,
      "akes": 1515,
      "with": 1516,
      "Ġnoble": 1517,
      "AND": 1518,
      "round": 1519,
      "Ġwoman": 1520,
      "Ġtook": 1521,
      "Now": 1522,
      "Ġret": 1523,
      "Ġcity": 1524,
      "Ġlittle": 1525,
      "esh": 1526,
      "Ġpeace": 1527,
      "Ġhigh": 1528,
      "ĠDuke": 1529,
      "ET": 1530,
      "Ġamong": 1531,
      "Ġanother": 1532,
      "Ġthree": 1533,
      "outh": 1534,
      "Ġnone": 1535,
      "ĠPh": 1536,
      "ale": 1537,
      "ory": 1538,
      "Ġel": 1539,
      "CE": 1540,
      "that": 1541,
      "Ġlady": 1542,
      "Ġang": 1543,
      "oss": 1544,
      "ows": 1545,
      "Ġsaw": 1546,
      "ason": 1547,
      "Ġgold": 1548,
      "Ġjud": 1549,
      "Ġbecause": 1550,
      "gypt": 1551,
      "Ġbest": 1552,
      "Ġthrough": 1553,
      "Ġmother": 1554,
      "Ġhold": 1555,
      "25": 1556,
      "tend": 1557,
      "Ġcomes": 1558,
      "_.]": 1559,
      "26": 1560,
      "Ġlie": 1561,
      "mb": 1562,
      "ins": 1563,
      "apt": 1564,
      "Your": 1565,
      "az": 1566,
      "Ġconf": 1567,
      "Ġhands": 1568,
      "Ġtong": 1569,
      "ains": 1570,
      "Ġright": 1571,
      "Ġfollow": 1572,
      "ike": 1573,
      "CON": 1574,
      "Ġkind": 1575,
      "Ġeye": 1576,
      "ier": 1577,
      "ss": 1578,
      "bs": 1579,
      "Ġbra": 1580,
      "gether": 1581,
      "ĠThou": 1582,
      "Ġlight": 1583,
      "Ġsaith": 1584,
      "Ġmaster": 1585,
      "Ġfull": 1586,
      "Ġcur": 1587,
      "arry": 1588,
      "Then": 1589,
      "ister": 1590,
      "Ġgone": 1591,
      "Ġcount": 1592,
      "mp": 1593,
      "Ġspir": 1594,
      "ĠNow": 1595,
      "Ġbehold": 1596,
      "ording": 1597,
      "Ġsame": 1598,
      "Ġwit": 1599,
      "ps": 1600,
      "thy": 1601,
      "iah": 1602,
      "ars": 1603,
      "tle": 1604,
      "Ġmyself": 1605,
      "istress": 1606,
      "Ġwhose": 1607,
      "ary": 1608,
      "STA": 1609,
      "ange": 1610,
      "ĠLet": 1611,
      "IS": 1612,
      "cl": 1613,
      "ple": 1614,
      "KE": 1615,
      "Ġneither": 1616,
      "ought": 1617,
      "ĠRome": 1618,
      "ĠSo": 1619,
      "Ġ3": 1620,
      "ison": 1621,
      "ĠEgypt": 1622,
      "erve": 1623,
      "Ġoffering": 1624,
      "une": 1625,
      "rink": 1626,
      "Ġgu": 1627,
      "ours": 1628,
      "ese": 1629,
      "over": 1630,
      "ash": 1631,
      "EM": 1632,
      "27": 1633,
      "pon": 1634,
      "uck": 1635,
      "Ġthereof": 1636,
      "Ġyears": 1637,
      "rance": 1638,
      "Ġcause": 1639,
      "uty": 1640,
      "BER": 1641,
      "Ġmon": 1642,
      "Ġdre": 1643,
      "There": 1644,
      "undred": 1645,
      "Ġind": 1646,
      "Here": 1647,
      "Ġhop": 1648,
      "Ġmind": 1649,
      "her": 1650,
      "Ġfaith": 1651,
      "asure": 1652,
      "Ġtill": 1653,
      "ations": 1654,
      "der": 1655,
      "come": 1656,
      "Ġdear": 1657,
      "Ġbur": 1658,
      "esus": 1659,
      "They": 1660,
      "ouch": 1661,
      "ience": 1662,
      "ĠAb": 1663,
      "iness": 1664,
      "ĠThis": 1665,
      "cle": 1666,
      "She": 1667,
      "ken": 1668,
      "band": 1669,
      "Ġste": 1670,
      "IAN": 1671,
      "Ġkill": 1672,
      "ions": 1673,
      "atch": 1674,
      "ities": 1675,
      "avid": 1676,
      "Ġsub": 1677,
      "Ġwork": 1678,
      "Ġpresent": 1679,
      "His": 1680,
      "Ġpra": 1681,
      "Ġwithout": 1682,
      "Ġgave": 1683,
      "usband": 1684,
      "Ġgrie": 1685,
      "rant": 1686,
      "ray": 1687,
      "Ġres": 1688,
      "CHARD": 1689,
      "St": 1690,
      "Ġpower": 1691,
      "ĠOF": 1692,
      "ook": 1693,
      "Ġback": 1694,
      "Ġnat": 1695,
      "ments": 1696,
      "Ġshow": 1697,
      "Ġreturn": 1698,
      "ily": 1699,
      "Ġfe": 1700,
      "de": 1701,
      "Ġtra": 1702,
      "Ġfound": 1703,
      "Ġsea": 1704,
      "Ġbless": 1705,
      "Than": 1706,
      "Ġthough": 1707,
      "HAM": 1708,
      "Ġholy": 1709,
      "Ġtongue": 1710,
      "Ġtogether": 1711,
      "pen": 1712,
      "air": 1713,
      "LET": 1714,
      "COND": 1715,
      "ĠZ": 1716,
      "ertain": 1717,
      "Ġgods": 1718,
      "INE": 1719,
      "shall": 1720,
      "RY": 1721,
      "Ġbod": 1722,
      "Ġenem": 1723,
      "BE": 1724,
      "Ġhundred": 1725,
      "SS": 1726,
      "ring": 1727,
      "esar": 1728,
      "Ġass": 1729,
      "ief": 1730,
      "EEN": 1731,
      "ĠAn": 1732,
      "Ġcalled": 1733,
      "ĠAnt": 1734,
      "ĠDavid": 1735,
      "ĠJud": 1736,
      "Ġdisc": 1737,
      "Well": 1738,
      "Ġnear": 1739,
      "SECOND": 1740,
      "Ġfriends": 1741,
      "eds": 1742,
      "Ġstay": 1743,
      "Ġmount": 1744,
      "Ġsure": 1745,
      "Ġmo": 1746,
      "ship": 1747,
      "Ġbes": 1748,
      "ised": 1749,
      "Ġdra": 1750,
      "eech": 1751,
      "Ġcourt": 1752,
      "ged": 1753,
      "ĠJer": 1754,
      "ner": 1755,
      "TER": 1756,
      "Ġfar": 1757,
      "Ġseem": 1758,
      "QUEEN": 1759,
      "Ġhusband": 1760,
      "ont": 1761,
      "Ġdeliver": 1762,
      "oun": 1763,
      "elp": 1764,
      "ush": 1765,
      "ĠEng": 1766,
      "Do": 1767,
      "aesar": 1768,
      "Ġgiven": 1769,
      "STAFF": 1770,
      "Not": 1771,
      "ade": 1772,
      "Ġvir": 1773,
      "Ġseven": 1774,
      "Ġaccording": 1775,
      "ning": 1776,
      "Ġplay": 1777,
      "ird": 1778,
      "ute": 1779,
      "ALSTAFF": 1780,
      "ween": 1781,
      "Ġfort": 1782,
      "ĠSir": 1783,
      "ates": 1784,
      "FALSTAFF": 1785,
      "Ġsec": 1786,
      "Ġtruth": 1787,
      "WN": 1788,
      "imes": 1789,
      "Ġside": 1790,
      ".âĢĶ": 1791,
      "ents": 1792,
      "Ġwind": 1793,
      "Ġsight": 1794,
      "Ġleft": 1795,
      "29": 1796,
      "uc": 1797,
      "ix": 1798,
      "roy": 1799,
      "Good": 1800,
      "Ġmeet": 1801,
      "Ġfield": 1802,
      "Ġlay": 1803,
      "MAN": 1804,
      "ĠYou": 1805,
      "Ġfal": 1806,
      "ĠJesus": 1807,
      "ict": 1808,
      "DUKE": 1809,
      "ED": 1810,
      "gth": 1811,
      "orse": 1812,
      "any": 1813,
      "Ġstrong": 1814,
      "Ġspirit": 1815,
      "Ġseen": 1816,
      "Ġwithin": 1817,
      "esty": 1818,
      "Ġboy": 1819,
      "Nay": 1820,
      "UL": 1821,
      "ĠTo": 1822,
      "Ġsil": 1823,
      "Ġhope": 1824,
      "Ġelse": 1825,
      "Sir": 1826,
      "Ġgrace": 1827,
      "ony": 1828,
      "Ġspake": 1829,
      "Ġfour": 1830,
      "Ġforg": 1831,
      "thee": 1832,
      "RIN": 1833,
      "enty": 1834,
      "ĠMy": 1835,
      "tw": 1836,
      "Ġvoice": 1837,
      "AG": 1838,
      "bt": 1839,
      "ĠLe": 1840,
      "iz": 1841,
      "race": 1842,
      "Ġjust": 1843,
      "Ġbea": 1844,
      "ICK": 1845,
      "ished": 1846,
      "Ġonce": 1847,
      "fect": 1848,
      "ROS": 1849,
      "LUC": 1850,
      "30": 1851,
      "Ġmatter": 1852,
      "31": 1853,
      "Ġcast": 1854,
      "BA": 1855,
      "uch": 1856,
      "Ġcrown": 1857,
      "ham": 1858,
      "OTH": 1859,
      "Will": 1860,
      "Ġfam": 1861,
      "Ġwater": 1862,
      "ID": 1863,
      "Ġimp": 1864,
      "Ġservant": 1865,
      "ĠII": 1866,
      "ĠAr": 1867,
      "Ġvill": 1868,
      "usal": 1869,
      "umber": 1870,
      "Shall": 1871,
      "Ġwrong": 1872,
      "ĠCome": 1873,
      "usalem": 1874,
      "ANTON": 1875,
      "Ġdrink": 1876,
      "Ġshame": 1877,
      "amp": 1878,
      "Ġevil": 1879,
      "fort": 1880,
      "ĠCl": 1881,
      "OST": 1882,
      "Ġmean": 1883,
      "ohn": 1884,
      "RESS": 1885,
      "Ġsleep": 1886,
      "let": 1887,
      "ceive": 1888,
      "Ġsun": 1889,
      "Ġbreak": 1890,
      "ĠJudah": 1891,
      "Ġten": 1892,
      "Ġbed": 1893,
      "aken": 1894,
      "oke": 1895,
      "oint": 1896,
      "Ġmaid": 1897,
      "Ġtem": 1898,
      "com": 1899,
      "Ġbid": 1900,
      "ĠCaesar": 1901,
      "Ġsend": 1902,
      "GO": 1903,
      "MAR": 1904,
      "Ġdou": 1905,
      "ĠIt": 1906,
      "ned": 1907,
      "Ġtold": 1908,
      "rist": 1909,
      "Ġmouth": 1910,
      "Ġflesh": 1911,
      "Have": 1912,
      "Ġhar": 1913,
      "Go": 1914,
      "ect": 1915,
      "den": 1916,
      "Ġhum": 1917,
      "Ġmis": 1918,
      "ĠHow": 1919,
      "Ġhour": 1920,
      "Ġletter": 1921,
      "day": 1922,
      "UN": 1923,
      "oney": 1924,
      "Ġbody": 1925,
      "32": 1926,
      "Thy": 1927,
      "pl": 1928,
      "Ġsold": 1929,
      "Ġstri": 1930,
      "ury": 1931,
      "ieve": 1932,
      "Ġhence": 1933,
      "anger": 1934,
      "ift": 1935,
      "Nor": 1936,
      "ĠThat": 1937,
      "ĠFrance": 1938,
      "Ġhelp": 1939,
      "PRIN": 1940,
      "bl": 1941,
      "Ġonly": 1942,
      "Al": 1943,
      "Ġfalse": 1944,
      "Aside": 1945,
      "Ġfight": 1946,
      "Ġdost": 1947,
      "ient": 1948,
      "pect": 1949,
      "oud": 1950,
      "attle": 1951,
      "eb": 1952,
      "Ġcapt": 1953,
      "ition": 1954,
      "Ġindeed": 1955,
      "LES": 1956,
      "Ġdest": 1957,
      "ENRY": 1958,
      "aul": 1959,
      "IST": 1960,
      "elcome": 1961,
      "ester": 1962,
      "ĠPr": 1963,
      "Ġwilt": 1964,
      "ault": 1965,
      "Ġprin": 1966,
      "Ġcut": 1967,
      "TR": 1968,
      "Ġremem": 1969,
      "ger": 1970,
      "Ġhas": 1971,
      "âĢĺ": 1972,
      "Ġplease": 1973,
      "ĠWhen": 1974,
      "ork": 1975,
      "them": 1976,
      "ĠHENRY": 1977,
      ",âĢĶ": 1978,
      "ĠJohn": 1979,
      "Ġjoy": 1980,
      "now": 1981,
      "Ġhome": 1982,
      "rew": 1983,
      "ĠQ": 1984,
      "Ġunt": 1985,
      "33": 1986,
      "thren": 1987,
      "ched": 1988,
      "Ġuncle": 1989,
      "cked": 1990,
      "aron": 1991,
      "fer": 1992,
      "Ġsound": 1993,
      "Ġhost": 1994,
      "BR": 1995,
      "Ġborn": 1996,
      "Ġval": 1997,
      "Ġgener": 1998,
      "ĠScene": 1999,
      "cious": 2000,
      "Ġwa": 2001,
      "Ġdwell": 2002,
      "Ġproph": 2003,
      "Ġposs": 2004,
      "Ġwhy": 2005,
      "gainst": 2006,
      "Ġreason": 2007,
      "Ġthemselves": 2008,
      "From": 2009,
      "Yet": 2010,
      "Ġcry": 2011,
      "Ġyouth": 2012,
      "Ġinst": 2013,
      "ms": 2014,
      "ĠMar": 2015,
      "ec": 2016,
      "reg": 2017,
      "ats": 2018,
      "ues": 2019,
      "ĠIII": 2020,
      "Ġlords": 2021,
      "Ġdesire": 2022,
      "Ġpers": 2023,
      "Ġhither": 2024,
      "Ġhang": 2025,
      "ĠJerusalem": 2026,
      "Ġseek": 2027,
      "by": 2028,
      "Ġburn": 2029,
      "teous": 2030,
      "vy": 2031,
      "ĠAs": 2032,
      "ilt": 2033,
      "Ġbetween": 2034,
      "LORD": 2035,
      "Scene": 2036,
      "Ġinc": 2037,
      "Our": 2038,
      "iet": 2039,
      "ĠThey": 2040,
      "Upon": 2041,
      "mer": 2042,
      "Ġlast": 2043,
      "his": 2044,
      "Ġcle": 2045,
      "Ġbreath": 2046,
      "All": 2047
    },
    "merges": [
      [
        "Ġ",
        "ã"
      ],
      [
        "Ġã",
        "ģ"
      ],
      [
        "t",
        "h"
      ],
      [
        "Ġã",
        "Ģ"
      ],
      [
        "Ġ",
        "th"
      ],
      [
        "ã",
        "ģ"
      ],
      [
        "ã",
        "Ĥ"
      ],
      [
        "Ġ",
        "a"
      ],
      [
        "ĠãĢ",
        "ģ"
      ],
      [
        "ã",
        "ĥ"
      ],
      [
        "Ġ",
        "æ"
      ],
      [
        "Ġth",
        "e"
      ],
      [
        "Ġ",
        "s"
      ],
      [
        "n",
        "d"
      ],
      [
        "Ġ",
        "h"
      ],
      [
        "e",
        "r"
      ],
      [
        "o",
        "u"
      ],
      [
        "i",
        "n"
      ],
      [
        "Ġ",
        "è"
      ],
      [
        "Ġ",
        "w"
      ],
      [
        "Ġã",
        "Ĥ"
      ],
      [
        "Ġ",
        "m"
      ],
      [
        "Ġ",
        "o"
      ],
      [
        "Ġ",
        "b"
      ],
      [
        "Ġ",
        "å"
      ],
      [
        "Ġã",
        "ĥ"
      ],
      [
        "r",
        "e"
      ],
      [
        "i",
        "s"
      ],
      [
        "Ġ",
        "t"
      ],
      [
        "Ġ",
        "ç"
      ],
      [
        "ĠãĤ",
        "Ĵ"
      ],
      [
        "ĠãĢ",
        "Ĥ"
      ],
      [
        "e",
        "n"
      ],
      [
        "l",
        "l"
      ],
      [
        "Ġ",
        "f"
      ],
      [
        "Ġ",
        "d"
      ],
      [
        "o",
        "r"
      ],
      [
        "a",
        "t"
      ],
      [
        "ãģ",
        "Ļ"
      ],
      [
        "Ġãģ",
        "¯"
      ],
      [
        "Ġa",
        "nd"
      ],
      [
        "Ġ",
        "c"
      ],
      [
        "o",
        "n"
      ],
      [
        "Ġo",
        "f"
      ],
      [
        "Ġ",
        "l"
      ],
      [
        "e",
        "s"
      ],
      [
        "a",
        "r"
      ],
      [
        "Ġãģ",
        "¾"
      ],
      [
        "Ġãģ",
        "Ĺ"
      ],
      [
        "Ġãģ",
        "®"
      ],
      [
        "Ġãģ¾",
        "ãģĻ"
      ],
      [
        "â",
        "Ģ"
      ],
      [
        "Ġ",
        "n"
      ],
      [
        "a",
        "n"
      ],
      [
        "Ġ",
        "p"
      ],
      [
        "e",
        "d"
      ],
      [
        "Ġt",
        "o"
      ],
      [
        "Ġ",
        "y"
      ],
      [
        "ãĥ",
        "¼"
      ],
      [
        "ª",
        "ŀ"
      ],
      [
        "Ġãģ",
        "§"
      ],
      [
        "Ġ",
        "é"
      ],
      [
        "Ġ",
        "I"
      ],
      [
        "âĢ",
        "Ļ"
      ],
      [
        "i",
        "t"
      ],
      [
        "Ġ",
        "g"
      ],
      [
        "v",
        "e"
      ],
      [
        "in",
        "g"
      ],
      [
        "Ġ",
        "A"
      ],
      [
        "ãģ",
        "Ħ"
      ],
      [
        "Ĺ",
        "¥"
      ],
      [
        "Ġè",
        "ªŀ"
      ],
      [
        "Ġ",
        "ä"
      ],
      [
        "ãĥ¼",
        "ãĤ"
      ],
      [
        "o",
        "m"
      ],
      [
        "Ġy",
        "ou"
      ],
      [
        "s",
        "t"
      ],
      [
        "Ġ",
        "in"
      ],
      [
        "Ġb",
        "e"
      ],
      [
        "Ġw",
        "i"
      ],
      [
        "o",
        "w"
      ],
      [
        "e",
        "l"
      ],
      [
        "Ġs",
        "h"
      ],
      [
        "T",
        "h"
      ],
      [
        "Ġh",
        "a"
      ],
      [
        "ĸ",
        "ĩ"
      ],
      [
        "ľ",
        "¬"
      ],
      [
        "ãĤ",
        "¹"
      ],
      [
        "Ġãģ",
        "¦"
      ],
      [
        "ãĤ",
        "¤"
      ],
      [
        "Ġæ",
        "ĸĩ"
      ],
      [
        "Ġãģ",
        "¨"
      ],
      [
        "ķ",
        "ä"
      ],
      [
        "Ġh",
        "e"
      ],
      [
        "Ġ",
        "u"
      ],
      [
        "Ġn",
        "o"
      ],
      [
        "a",
        "l"
      ],
      [
        "c",
        "h"
      ],
      [
        "a",
        "y"
      ],
      [
        "o",
        "d"
      ],
      [
        "c",
        "e"
      ],
      [
        "i",
        "m"
      ],
      [
        "Ġth",
        "at"
      ],
      [
        "l",
        "e"
      ],
      [
        "Ġw",
        "h"
      ],
      [
        "Ġ",
        "B"
      ],
      [
        "Ġ",
        "2"
      ],
      [
        "l",
        "d"
      ],
      [
        "s",
        "e"
      ],
      [
        "i",
        "r"
      ],
      [
        "a",
        "ll"
      ],
      [
        "g",
        "h"
      ],
      [
        "Ġ",
        "-"
      ],
      [
        "æ",
        "ľ¬"
      ],
      [
        "·",
        "·"
      ],
      [
        "¾",
        "¡"
      ],
      [
        "è",
        "Ħ"
      ],
      [
        "ãĥ",
        "Ī"
      ],
      [
        "èĦ",
        "Ī"
      ],
      [
        "å",
        "Ĳ"
      ],
      [
        "ãĤ",
        "ī"
      ],
      [
        "åĲ",
        "Ī"
      ],
      [
        "Ġãģ",
        "ª"
      ],
      [
        "Ġæ",
        "Ĺ¥"
      ],
      [
        "Ġæ",
        "··"
      ],
      [
        "Ġãĥ",
        "ĩ"
      ],
      [
        "Ġè",
        "©"
      ],
      [
        "Ġé",
        "ĩ"
      ],
      [
        "Ġä",
        "¸"
      ],
      [
        "ı",
        "ãģ"
      ],
      [
        "ķä",
        "¾¡"
      ],
      [
        "Ġæĸĩ",
        "èĦĪ"
      ],
      [
        "ĠæĹ¥",
        "æľ¬"
      ],
      [
        "ãĥ¼ãĤ",
        "¿"
      ],
      [
        "Ġè©",
        "ķä¾¡"
      ],
      [
        "Ġãĥĩ",
        "ãĥ¼ãĤ¿"
      ],
      [
        "Ġm",
        "y"
      ],
      [
        "e",
        "t"
      ],
      [
        "n",
        "t"
      ],
      [
        "u",
        "t"
      ],
      [
        "Ġf",
        "or"
      ],
      [
        "i",
        "d"
      ],
      [
        "Ġ",
        "is"
      ],
      [
        "Ġ",
        "e"
      ],
      [
        "a",
        "s"
      ],
      [
        "t",
        "e"
      ],
      [
        "Ġm",
        "e"
      ],
      [
        "Ġno",
        "t"
      ],
      [
        "Ġwi",
        "th"
      ],
      [
        "er",
        "e"
      ],
      [
        "Ġh",
        "is"
      ],
      [
        "k",
        "e"
      ],
      [
        "o",
        "c"
      ],
      [
        "a",
        "m"
      ],
      [
        "Ġ",
        "Ġ"
      ],
      [
        "a",
        "d"
      ],
      [
        "Ġ",
        "it"
      ],
      [
        "en",
        "t"
      ],
      [
        "Ġd",
        "e"
      ],
      [
        "P",
        "E"
      ],
      [
        "ou",
        "r"
      ],
      [
        "Ġ",
        "v"
      ],
      [
        "r",
        "i"
      ],
      [
        "Ġ",
        "M"
      ],
      [
        "th",
        "er"
      ],
      [
        "gh",
        "t"
      ],
      [
        "r",
        "a"
      ],
      [
        "Ġh",
        "im"
      ],
      [
        "Ġth",
        "ou"
      ],
      [
        "4",
        "8"
      ],
      [
        "Ġ2",
        "0"
      ],
      [
        "æ",
        "Ĺ¥"
      ],
      [
        "å",
        "Ń"
      ],
      [
        "ª",
        "Ń"
      ],
      [
        "½",
        "Ļ"
      ],
      [
        "å",
        "½Ļ"
      ],
      [
        "ĭ",
        "±"
      ],
      [
        "ļ",
        "Ħ"
      ],
      [
        "ãģ",
        "ı"
      ],
      [
        "ãĥ",
        "«"
      ],
      [
        "ãĥ",
        "³"
      ],
      [
        "åŃ",
        "Ĺ"
      ],
      [
        "å",
        "Ī"
      ],
      [
        "ãģ",
        "ĳ"
      ],
      [
        "Ġãģ",
        "ĭ"
      ],
      [
        "Ġãģ",
        "ķ"
      ],
      [
        "Ġè",
        "ĭ±"
      ],
      [
        "Ġãĥ",
        "Ń"
      ],
      [
        "Ġç",
        "Ķ"
      ],
      [
        "Ġéĩ",
        "ı"
      ],
      [
        "ãģ",
        "¿"
      ],
      [
        "Ġæ",
        "®"
      ],
      [
        "Ġè",
        "¨"
      ],
      [
        "Ġãĥ",
        "Ĩ"
      ],
      [
        "ĠB",
        "PE"
      ],
      [
        "Ġä¸",
        "Ĭ"
      ],
      [
        "©",
        "ãĤ¤"
      ],
      [
        "ãĤ¹",
        "ãĥĪ"
      ],
      [
        "Ġ20",
        "48"
      ],
      [
        "Ġæ··",
        "åĲĪ"
      ],
      [
        "Ġãģ§",
        "ãģĻ"
      ],
      [
        "Ġãģĭ",
        "ãĤī"
      ],
      [
        "Ġèªŀ",
        "å½Ļ"
      ],
      [
        "W",
        "h"
      ],
      [
        "Ġb",
        "y"
      ],
      [
        "Ġsh",
        "all"
      ],
      [
        "ĠA",
        "nd"
      ],
      [
        "Ġ",
        "L"
      ],
      [
        "r",
        "o"
      ],
      [
        "a",
        "nd"
      ],
      [
        "a",
        "c"
      ],
      [
        "o",
        "re"
      ],
      [
        "v",
        "er"
      ],
      [
        "Ġ",
        "k"
      ],
      [
        "Ġ",
        "re"
      ],
      [
        "Ġs",
        "t"
      ],
      [
        "Ġc",
        "on"
      ],
      [
        "a",
        "b"
      ],
      [
        "Ġo",
        "n"
      ],
      [
        "or",
        "d"
      ],
      [
        "Ġyou",
        "r"
      ],
      [
        "u",
        "r"
      ],
      [
        "A",
        "nd"
      ],
      [
        "a",
        "in"
      ],
      [
        "Ġa",
        "s"
      ],
      [
        "u",
        "s"
      ],
      [
        "Ġha",
        "ve"
      ],
      [
        "a",
        "i"
      ],
      [
        "om",
        "e"
      ],
      [
        "Ġl",
        "e"
      ],
      [
        "Ġl",
        "i"
      ],
      [
        "Ġ",
        "S"
      ],
      [
        "es",
        "t"
      ],
      [
        "Ġw",
        "e"
      ],
      [
        "Ġth",
        "is"
      ],
      [
        "Ġd",
        "o"
      ],
      [
        "Ġa",
        "ll"
      ],
      [
        "l",
        "y"
      ],
      [
        "i",
        "on"
      ],
      [
        "Ġth",
        "y"
      ],
      [
        "Ġwi",
        "ll"
      ],
      [
        "Th",
        "e"
      ],
      [
        "O",
        "R"
      ],
      [
        "es",
        "s"
      ],
      [
        "Ġg",
        "o"
      ],
      [
        "Ġs",
        "e"
      ],
      [
        "Ġa",
        "n"
      ],
      [
        "nt",
        "o"
      ],
      [
        "Ġ",
        "G"
      ],
      [
        "Ġs",
        "o"
      ],
      [
        "Ġ",
        "1"
      ],
      [
        "ou",
        "ld"
      ],
      [
        "Ġthe",
        "m"
      ],
      [
        "Ġthe",
        "y"
      ],
      [
        "Ġh",
        "er"
      ],
      [
        "Ġl",
        "o"
      ],
      [
        "Ġu",
        "nto"
      ],
      [
        "a",
        "ke"
      ],
      [
        "Ġu",
        "p"
      ],
      [
        "i",
        "ch"
      ],
      [
        "S",
        "C"
      ],
      [
        "¿",
        "½"
      ],
      [
        "Ġthe",
        "e"
      ],
      [
        "Ġ",
        "H"
      ],
      [
        "r",
        "om"
      ],
      [
        "i",
        "l"
      ],
      [
        "t",
        "er"
      ],
      [
        "a",
        "st"
      ],
      [
        "Ġ",
        "C"
      ],
      [
        "g",
        "e"
      ],
      [
        "x",
        "t"
      ],
      [
        "Ġc",
        "h"
      ],
      [
        "2",
        "8"
      ],
      [
        "I",
        "I"
      ],
      [
        "U",
        "T"
      ],
      [
        "r",
        "u"
      ],
      [
        "ou",
        "t"
      ],
      [
        "Ġde",
        "p"
      ],
      [
        "ar",
        "d"
      ],
      [
        "Ġg",
        "en"
      ],
      [
        "Ġs",
        "p"
      ],
      [
        "i",
        "ll"
      ],
      [
        "Ġ",
        "_"
      ],
      [
        "Ġb",
        "ut"
      ],
      [
        "ve",
        "l"
      ],
      [
        "Ġ",
        "6"
      ],
      [
        "OR",
        "D"
      ],
      [
        "Ġm",
        "an"
      ],
      [
        "v",
        "en"
      ],
      [
        "Ġ",
        "8"
      ],
      [
        "Ġw",
        "as"
      ],
      [
        "Ġm",
        "od"
      ],
      [
        "ĠM",
        "ac"
      ],
      [
        "Ġcon",
        "te"
      ],
      [
        "Ġl",
        "oc"
      ],
      [
        "Ġa",
        "re"
      ],
      [
        "e",
        "ar"
      ],
      [
        "Ġ2",
        "5"
      ],
      [
        "E",
        "N"
      ],
      [
        "Ġle",
        "vel"
      ],
      [
        "Ġdep",
        "th"
      ],
      [
        "Ġmod",
        "el"
      ],
      [
        "ãĤ",
        "¿"
      ],
      [
        "ãģ",
        "®"
      ],
      [
        "ãģ",
        "ķ"
      ],
      [
        "ãģ",
        "Ĺ"
      ],
      [
        "Ġv",
        "oc"
      ],
      [
        "è",
        "ªŀ"
      ],
      [
        "è",
        "¨"
      ],
      [
        "ãģ",
        "ª"
      ],
      [
        "ãĥ",
        "ĩ"
      ],
      [
        "é",
        "Ģ"
      ],
      [
        "ãĤ",
        "«"
      ],
      [
        "ç",
        "ļĦ"
      ],
      [
        "è",
        "ªŃ"
      ],
      [
        "ãģ",
        "ĵ"
      ],
      [
        "ãĤ",
        "Į"
      ],
      [
        "ãĥ",
        "¢"
      ],
      [
        "¡",
        "Į"
      ],
      [
        "¢",
        "º"
      ],
      [
        "¢",
        "ĥ"
      ],
      [
        "£",
        "ľ"
      ],
      [
        "«",
        "ł"
      ],
      [
        "¬",
        "¡"
      ],
      [
        "®",
        "Ĺ"
      ],
      [
        "®",
        "ļ"
      ],
      [
        "¯",
        "¾"
      ],
      [
        "³",
        "ª"
      ],
      [
        "¶",
        "ļ"
      ],
      [
        "·",
        "´"
      ],
      [
        "¸",
        "¬"
      ],
      [
        "º",
        "Ī"
      ],
      [
        "»",
        "¸"
      ],
      [
        "¼",
        "Ŀ"
      ],
      [
        "½",
        "ľ"
      ],
      [
        "¿",
        "ľ"
      ],
      [
        "ä",
        "¼Ŀ"
      ],
      [
        "å",
        "ĸ"
      ],
      [
        "å",
        "ľ"
      ],
      [
        "å",
        "¢ĥ"
      ],
      [
        "å",
        "®ļ"
      ],
      [
        "å",
        "¿ľ"
      ],
      [
        "æ",
        "Ī"
      ],
      [
        "æ",
        "ĸ"
      ],
      [
        "æ",
        "¸¬"
      ],
      [
        "ç",
        "Ĥ"
      ],
      [
        "ç",
        "ı"
      ],
      [
        "ç",
        "ķ"
      ],
      [
        "ç",
        "«ł"
      ],
      [
        "ç",
        "®Ĺ"
      ],
      [
        "ç",
        "·´"
      ],
      [
        "è",
        "£ľ"
      ],
      [
        "è",
        "³ª"
      ],
      [
        "é",
        "¡Į"
      ],
      [
        "Ġ",
        "UT"
      ],
      [
        "Ģ",
        "§"
      ],
      [
        "Ģ",
        "Ļ"
      ],
      [
        "ģ",
        "º"
      ],
      [
        "Ĩ",
        "į"
      ],
      [
        "ī",
        "¯"
      ],
      [
        "ī",
        "±"
      ],
      [
        "į",
        "ģ"
      ],
      [
        "ı",
        "¥"
      ],
      [
        "Ĵ",
        "°"
      ],
      [
        "ĵ",
        "ģ"
      ],
      [
        "Ķ",
        "¹"
      ],
      [
        "ķ",
        "°"
      ],
      [
        "ķ",
        "·"
      ],
      [
        "ķ",
        "ı"
      ],
      [
        "ĸ",
        "İ"
      ],
      [
        "Ľ",
        "®"
      ],
      [
        "Ľ",
        "º"
      ],
      [
        "Ł",
        "Ń"
      ],
      [
        "ãģ",
        "Į"
      ],
      [
        "ãĤ",
        "°"
      ],
      [
        "ãĤ",
        "»"
      ],
      [
        "ãĥ",
        "ĥ"
      ],
      [
        "ãĥ",
        "Ĭ"
      ],
      [
        "ãĥ",
        "ĳ"
      ],
      [
        "ãĥ",
        "Ĺ"
      ],
      [
        "ĠA",
        "I"
      ],
      [
        "åĪ",
        "Ĩ"
      ],
      [
        "Ġ1",
        "28"
      ],
      [
        "Ġ25",
        "6"
      ],
      [
        "è¨",
        "¼"
      ],
      [
        "éĢ",
        "ļ"
      ],
      [
        "åĸ",
        "Ħ"
      ],
      [
        "åľ",
        "¨"
      ],
      [
        "æĪ",
        "Ĳ"
      ],
      [
        "æĸ",
        "¹"
      ],
      [
        "çĤ",
        "¹"
      ],
      [
        "çı",
        "¾"
      ],
      [
        "çķ",
        "ª"
      ],
      [
        "ª",
        "į"
      ],
      [
        "¼",
        "¢"
      ],
      [
        "å",
        "Ĭ"
      ],
      [
        "å",
        "Į"
      ],
      [
        "è",
        "ªį"
      ],
      [
        "é",
        "ļ"
      ],
      [
        "Ī",
        "Ĺ"
      ],
      [
        "Ġãģ",
        "«"
      ],
      [
        "Ġãģ",
        "²"
      ],
      [
        "Ġãģ",
        "Ħ"
      ],
      [
        "Ġãģ",
        "ĵ"
      ],
      [
        "Ġãģ",
        "Ľ"
      ],
      [
        "Ġãģ",
        "ł"
      ],
      [
        "Ġæ",
        "¬¡"
      ],
      [
        "Ġæ",
        "Ģ§"
      ],
      [
        "Ġæ",
        "ī±"
      ],
      [
        "Ġæ",
        "Ķ¹"
      ],
      [
        "Ġæ",
        "ķ°"
      ],
      [
        "Ġè",
        "ªŃ"
      ],
      [
        "Ġè",
        "»¸"
      ],
      [
        "Ġè",
        "ī¯"
      ],
      [
        "ĠãĤ",
        "«"
      ],
      [
        "ĠãĤ",
        "³"
      ],
      [
        "ĠãĤ",
        "Ĥ"
      ],
      [
        "ĠãĤ",
        "Į"
      ],
      [
        "Ġå",
        "ĭ"
      ],
      [
        "Ġå",
        "¯¾"
      ],
      [
        "Ġå",
        "ĢĻ"
      ],
      [
        "Ġå",
        "Ĩį"
      ],
      [
        "Ġå",
        "įģ"
      ],
      [
        "Ġå",
        "ı¥"
      ],
      [
        "Ġå",
        "ĵģ"
      ],
      [
        "Ġå",
        "ķı"
      ],
      [
        "Ġå",
        "Ľº"
      ],
      [
        "Ġå",
        "ĪĹ"
      ],
      [
        "Ġãĥ",
        "¢"
      ],
      [
        "Ġãĥ",
        "ı"
      ],
      [
        "Ġç",
        "ļĦ"
      ],
      [
        "Ġç",
        "¢º"
      ],
      [
        "Ġç",
        "¶ļ"
      ],
      [
        "Ġç",
        "Ĵ°"
      ],
      [
        "Ġç",
        "ĸİ"
      ],
      [
        "Ġç",
        "ŁŃ"
      ],
      [
        "Ġé",
        "ģº"
      ],
      [
        "Ġé",
        "ķ·"
      ],
      [
        "Ġä",
        "ºĪ"
      ],
      [
        "Ġä¸",
        "¡"
      ],
      [
        "ĠçĶ",
        "¨"
      ],
      [
        "ĠçĶ",
        "Ł"
      ],
      [
        "Ġæ®",
        "ĭ"
      ],
      [
        "Ġè¨",
        "Ī"
      ],
      [
        "SC",
        "II"
      ],
      [
        "ĠUT",
        "F"
      ],
      [
        "åĬ",
        "ł"
      ],
      [
        "åĮ",
        "ĸ"
      ],
      [
        "éļ",
        "İ"
      ],
      [
        "¤",
        "ľ"
      ],
      [
        "¦",
        "ĸ"
      ],
      [
        "µ",
        "Ħ"
      ],
      [
        "»",
        "Ĭ"
      ],
      [
        "è",
        "¦ĸ"
      ],
      [
        "ľ",
        "Ģ"
      ],
      [
        "ãĤ",
        "·"
      ],
      [
        "ãĤ",
        "Ń"
      ],
      [
        "ãĥ",
        "¥"
      ],
      [
        "ãĥ",
        "©ãĤ¤"
      ],
      [
        "Ġç",
        "Ľ®"
      ],
      [
        "åĪ",
        "Ŀ"
      ],
      [
        "Ġby",
        "te"
      ],
      [
        "Ġloc",
        "al"
      ],
      [
        "ł",
        "ãģķ"
      ],
      [
        "ãĤ",
        "ıãģ"
      ],
      [
        "Ġæ",
        "¼¢"
      ],
      [
        "Ġç",
        "µĦ"
      ],
      [
        "ãĥ¼ãĤ",
        "«"
      ],
      [
        "ãĥ¼ãĤ",
        "¯"
      ],
      [
        "ķä",
        "½ľ"
      ],
      [
        "ãĤī",
        "ãģĮ"
      ],
      [
        "Ġvoc",
        "ab"
      ],
      [
        "ãĥĩ",
        "ãĥ«"
      ],
      [
        "èªŃ",
        "çĤ¹"
      ],
      [
        "ãģĵ",
        "ãĤĮ"
      ],
      [
        "ãĤ»",
        "ãĥ³"
      ],
      [
        "ãĤıãģ",
        "Ľ"
      ],
      [
        "Ģ",
        "²"
      ],
      [
        "Ń",
        "Ĳ"
      ],
      [
        "Ġãģ",
        "ıãģ"
      ],
      [
        "Ġæ",
        "ľ¬"
      ],
      [
        "Ġæ",
        "¤ľ"
      ],
      [
        "Ġæ",
        "ľĢ"
      ],
      [
        "Ġè",
        "¿½"
      ],
      [
        "ĠãĤ",
        "¹"
      ],
      [
        "Ġå",
        "°"
      ],
      [
        "Ġå",
        "ŃĲ"
      ],
      [
        "Ġãĥ",
        "Ĳ"
      ],
      [
        "Ġãĥ",
        "ĳ"
      ],
      [
        "Ġãĥ",
        "©ãĤ¤"
      ],
      [
        "Ġé",
        "Ģ²"
      ],
      [
        "Ġä",
        "»Ĭ"
      ],
      [
        "Ġæĸĩ",
        "ç«ł"
      ],
      [
        "Ġãģª",
        "ãģĦ"
      ],
      [
        "Ġãģª",
        "ãģı"
      ],
      [
        "Ġæ··",
        "åľ¨"
      ],
      [
        "Ġéĩ",
        "į"
      ],
      [
        "Ġèĭ±",
        "æĹ¥"
      ],
      [
        "ĠãĥŃ",
        "ãĤ°"
      ],
      [
        "Ġæ®",
        "µ"
      ],
      [
        "Ġè¨",
        "ĵ"
      ],
      [
        "Ġgen",
        "ai"
      ],
      [
        "Ġãģĵ",
        "ãģ®"
      ],
      [
        "Ġæī±",
        "ãģĦ"
      ],
      [
        "ĠæĶ¹",
        "åĸĦ"
      ],
      [
        "Ġæķ°",
        "åŃĹ"
      ],
      [
        "Ġèī¯",
        "ãģĦ"
      ],
      [
        "ĠãĤ³",
        "ãĥ¼"
      ],
      [
        "Ġåĭ",
        "ķä½ľ"
      ],
      [
        "Ġå¯¾",
        "å¿ľ"
      ],
      [
        "ĠåĢĻ",
        "è£ľ"
      ],
      [
        "ĠåĨį",
        "çı¾"
      ],
      [
        "Ġåįģ",
        "åĪĨ"
      ],
      [
        "Ġåĵģ",
        "è³ª"
      ],
      [
        "Ġåķı",
        "é¡Į"
      ],
      [
        "ĠåĽº",
        "å®ļ"
      ],
      [
        "Ġãĥı",
        "ãĥĥ"
      ],
      [
        "Ġç¶ļ",
        "ãģĳ"
      ],
      [
        "ĠçĴ°",
        "å¢ĥ"
      ],
      [
        "Ġçĸİ",
        "éĢļ"
      ],
      [
        "ĠçŁŃ",
        "ãģĦ"
      ],
      [
        "Ġéģº",
        "ä¼Ŀ"
      ],
      [
        "ĠäºĪ",
        "æ¸¬"
      ],
      [
        "Ġä¸¡",
        "æĸ¹"
      ],
      [
        "ĠçĶŁ",
        "æĪĲ"
      ],
      [
        "Ġæ®ĭ",
        "ãģĹ"
      ],
      [
        "Ġè¨Ī",
        "ç®Ĺ"
      ],
      [
        "ãĤ¤",
        "ãĥĪ"
      ],
      [
        "ãĤ¤",
        "ãĥĹ"
      ],
      [
        "ıãģ",
        "ķ"
      ],
      [
        "Ġãģł",
        "ãģĳ"
      ],
      [
        "Ġç¢º",
        "èªį"
      ],
      [
        "ĠçĽ®",
        "çļĦ"
      ],
      [
        "Ġèĭ±",
        "èªŀ"
      ],
      [
        "Ġconte",
        "xt"
      ],
      [
        "ãĤ«",
        "ãĥĬ"
      ],
      [
        "ãĥ¢",
        "ãĥ¼ãĤ¯"
      ],
      [
        "ãĥ©ãĤ¤",
        "ãĥ³"
      ],
      [
        "łãģķ",
        "ãģĦ"
      ],
      [
        "Ġæ¼¢",
        "åŃĹ"
      ],
      [
        "ãĥ¼ãĤ«",
        "ãĥ«"
      ],
      [
        "ãĤīãģĮ",
        "ãģª"
      ],
      [
        "ĠA",
        "SCII"
      ],
      [
        "åĲĪ",
        "ãĤıãģĽ"
      ],
      [
        "ĠãĥĨ",
        "ãĤ¹ãĥĪ"
      ],
      [
        "ĠèªŃ",
        "ãģ¿"
      ],
      [
        "ĠãĤ«",
        "ãĤ¿"
      ],
      [
        "Ġåı¥",
        "èªŃçĤ¹"
      ],
      [
        "Ġãĥ¢",
        "ãĥĩãĥ«"
      ],
      [
        "Ġæľ¬",
        "çķª"
      ],
      [
        "Ġæ¤ľ",
        "è¨¼"
      ],
      [
        "Ġå°",
        "ıãģķ"
      ],
      [
        "Ġè¨ĵ",
        "ç·´"
      ],
      [
        "ãĥĳ",
        "ãĤ¹"
      ],
      [
        "ãĤ·",
        "ãĥ¥"
      ],
      [
        "ãĤ»ãĥ³",
        "ãĤ¹"
      ],
      [
        "Ġä»Ĭ",
        "æĹ¥"
      ],
      [
        "ãĤŃ",
        "ãĤ¹ãĥĪ"
      ],
      [
        "ĠçµĦ",
        "ãģ¿"
      ],
      [
        "Ġè¿½",
        "åĬł"
      ],
      [
        "ĠéĢ²",
        "åĮĸ"
      ],
      [
        "Ġæ®µ",
        "éļİ"
      ],
      [
        "ĠãĥŃ",
        "ãĥ¼ãĤ«ãĥ«"
      ],
      [
        "Ġãģ²",
        "ãĤīãģĮãģª"
      ],
      [
        "Ġãģıãģ",
        "łãģķãģĦ"
      ],
      [
        "ĠæľĢ",
        "åĪĿ"
      ],
      [
        "Ġéĩį",
        "è¦ĸ"
      ],
      [
        "Ġå°ıãģķ",
        "ãģı"
      ],
      [
        "ĠãĥĲ",
        "ãĤ¤ãĥĪ"
      ],
      [
        "Ġãĥĳ",
        "ãĤ¤ãĥĹ"
      ],
      [
        "ĠãĤ¹",
        "ãĥ¢ãĥ¼ãĤ¯"
      ],
      [
        "Ġãĥ©ãĤ¤",
        "ãĤ»ãĥ³ãĤ¹"
      ],
      [
        "ĠãĤ³ãĥ¼",
        "ãĥĳãĤ¹"
      ],
      [
        "Ġãĥıãĥĥ",
        "ãĤ·ãĥ¥"
      ],
      [
        "ĠãĥĨ",
        "ãĤŃãĤ¹ãĥĪ"
      ],
      [
        "ĠãĤ«ãĤ¿",
        "ãĤ«ãĥĬ"
      ],
      [
        "ĠçµĦãģ¿",
        "åĲĪãĤıãģĽ"
      ],
      [
        "ĠãĥĳãĤ¤ãĥĹ",
        "ãĥ©ãĤ¤ãĥ³"
      ],
      [
        "Ġs",
        "u"
      ],
      [
        "Ġ",
        "E"
      ],
      [
        "i",
        "ght"
      ],
      [
        "am",
        "e"
      ],
      [
        "i",
        "f"
      ],
      [
        "e",
        "a"
      ],
      [
        "Ġ",
        "J"
      ],
      [
        "a",
        "u"
      ],
      [
        "in",
        "e"
      ],
      [
        "i",
        "c"
      ],
      [
        "Ġf",
        "rom"
      ],
      [
        "Ġthe",
        "ir"
      ],
      [
        "Ġ",
        "P"
      ],
      [
        "Ġthe",
        "re"
      ],
      [
        "e",
        "m"
      ],
      [
        "o",
        "t"
      ],
      [
        "an",
        "t"
      ],
      [
        "er",
        "s"
      ],
      [
        "e",
        "ll"
      ],
      [
        "A",
        "N"
      ],
      [
        "Ġ",
        "Th"
      ],
      [
        "ĠL",
        "ORD"
      ],
      [
        "Ġs",
        "a"
      ],
      [
        "Ġf",
        "a"
      ],
      [
        "Ġk",
        "n"
      ],
      [
        "U",
        "S"
      ],
      [
        "[",
        "_"
      ],
      [
        "A",
        "R"
      ],
      [
        "ar",
        "t"
      ],
      [
        "T",
        "o"
      ],
      [
        "Ġwh",
        "ich"
      ],
      [
        "f",
        "ore"
      ],
      [
        "on",
        "e"
      ],
      [
        "I",
        "N"
      ],
      [
        "Ġ",
        "F"
      ],
      [
        "o",
        "l"
      ],
      [
        "Ġn",
        "e"
      ],
      [
        "Ġa",
        "t"
      ],
      [
        "E",
        "R"
      ],
      [
        "Ġa",
        "m"
      ],
      [
        "on",
        "g"
      ],
      [
        "s",
        "el"
      ],
      [
        "Ġ",
        "our"
      ],
      [
        "Ġc",
        "om"
      ],
      [
        "ou",
        "s"
      ],
      [
        ".",
        "_"
      ],
      [
        "i",
        "ve"
      ],
      [
        "Ġsh",
        "e"
      ],
      [
        "f",
        "e"
      ],
      [
        "c",
        "t"
      ],
      [
        "re",
        "s"
      ],
      [
        "ĠĠ",
        "ĠĠ"
      ],
      [
        "i",
        "nd"
      ],
      [
        "._",
        "]"
      ],
      [
        "th",
        "e"
      ],
      [
        "q",
        "u"
      ],
      [
        "Ġ",
        "O"
      ],
      [
        "o",
        "k"
      ],
      [
        "Ġs",
        "ay"
      ],
      [
        "o",
        "p"
      ],
      [
        "Ġ",
        "out"
      ],
      [
        "i",
        "e"
      ],
      [
        "E",
        "S"
      ],
      [
        "Ġup",
        "on"
      ],
      [
        "a",
        "th"
      ],
      [
        "Ġm",
        "u"
      ],
      [
        "o",
        "s"
      ],
      [
        "Ġ",
        "D"
      ],
      [
        "Ġb",
        "l"
      ],
      [
        "ow",
        "n"
      ],
      [
        "Ġw",
        "ere"
      ],
      [
        "Th",
        "at"
      ],
      [
        "o",
        "od"
      ],
      [
        "O",
        "N"
      ],
      [
        "is",
        "h"
      ],
      [
        "Ġgo",
        "od"
      ],
      [
        "Ġha",
        "th"
      ],
      [
        "r",
        "ou"
      ],
      [
        "ĠG",
        "od"
      ],
      [
        "g",
        "ain"
      ],
      [
        "e",
        "p"
      ],
      [
        "Ġo",
        "r"
      ],
      [
        "r",
        "y"
      ],
      [
        "Wh",
        "at"
      ],
      [
        "o",
        "se"
      ],
      [
        "o",
        "ld"
      ],
      [
        "Ġsa",
        "id"
      ],
      [
        "Ġwh",
        "at"
      ],
      [
        "Ġwh",
        "en"
      ],
      [
        "Ġs",
        "w"
      ],
      [
        "Ġ",
        "R"
      ],
      [
        "Ġon",
        "e"
      ],
      [
        "Ġu",
        "s"
      ],
      [
        "Ġc",
        "ome"
      ],
      [
        "Ġs",
        "on"
      ],
      [
        "Ġw",
        "or"
      ],
      [
        "Ġa",
        "l"
      ],
      [
        "re",
        "n"
      ],
      [
        "o",
        "st"
      ],
      [
        "S",
        "T"
      ],
      [
        "Ġl",
        "ord"
      ],
      [
        "p",
        "p"
      ],
      [
        "Ġa",
        "r"
      ],
      [
        "p",
        "t"
      ],
      [
        "at",
        "e"
      ],
      [
        "a",
        "ve"
      ],
      [
        "Ġp",
        "l"
      ],
      [
        "Ġkn",
        "ow"
      ],
      [
        "u",
        "l"
      ],
      [
        "Ġ",
        "if"
      ],
      [
        "Ġm",
        "ore"
      ],
      [
        "a",
        "k"
      ],
      [
        "Ġd",
        "ay"
      ],
      [
        "t",
        "o"
      ],
      [
        "Ġha",
        "d"
      ],
      [
        "Ġp",
        "r"
      ],
      [
        "Ġ",
        "The"
      ],
      [
        "u",
        "re"
      ],
      [
        "Ġlo",
        "ve"
      ],
      [
        "sel",
        "f"
      ],
      [
        "Ġn",
        "ow"
      ],
      [
        "ing",
        "s"
      ],
      [
        "a",
        "re"
      ],
      [
        "u",
        "m"
      ],
      [
        "at",
        "ion"
      ],
      [
        "Ġw",
        "ould"
      ],
      [
        "Ġha",
        "nd"
      ],
      [
        "v",
        "es"
      ],
      [
        "Ġa",
        "gain"
      ],
      [
        "Ġl",
        "et"
      ],
      [
        "nt",
        "er"
      ],
      [
        "Ġy",
        "e"
      ],
      [
        "Ġ",
        "T"
      ],
      [
        "âĢ",
        "Ķ"
      ],
      [
        "a",
        "h"
      ],
      [
        "Ġof",
        "f"
      ],
      [
        "Ġ",
        "j"
      ],
      [
        "it",
        "y"
      ],
      [
        "re",
        "at"
      ],
      [
        "Ġm",
        "ad"
      ],
      [
        "Ġ",
        "N"
      ],
      [
        "Ġc",
        "an"
      ],
      [
        "Ġthe",
        "n"
      ],
      [
        "i",
        "es"
      ],
      [
        "u",
        "e"
      ],
      [
        "i",
        "ld"
      ],
      [
        "Ġm",
        "ay"
      ],
      [
        "Ġd",
        "id"
      ],
      [
        "Ġth",
        "an"
      ],
      [
        "o",
        "f"
      ],
      [
        "as",
        "s"
      ],
      [
        "in",
        "k"
      ],
      [
        "n",
        "ess"
      ],
      [
        "i",
        "ce"
      ],
      [
        "B",
        "ut"
      ],
      [
        "A",
        "L"
      ],
      [
        "Ġm",
        "ake"
      ],
      [
        "an",
        "ce"
      ],
      [
        "Ġse",
        "e"
      ],
      [
        "en",
        "ce"
      ],
      [
        "O",
        "L"
      ],
      [
        "i",
        "th"
      ],
      [
        "Ġe",
        "ver"
      ],
      [
        "id",
        "e"
      ],
      [
        "or",
        "t"
      ],
      [
        "E",
        "x"
      ],
      [
        "Ġ",
        "âĢĻ"
      ],
      [
        "i",
        "g"
      ],
      [
        "Ġsh",
        "ould"
      ],
      [
        "ĠI",
        "s"
      ],
      [
        "u",
        "n"
      ],
      [
        "Ġa",
        "b"
      ],
      [
        "Ġk",
        "ing"
      ],
      [
        "is",
        "t"
      ],
      [
        "Ġf",
        "o"
      ],
      [
        "Ġb",
        "o"
      ],
      [
        "e",
        "nd"
      ],
      [
        "ur",
        "n"
      ],
      [
        "p",
        "h"
      ],
      [
        "Ġt",
        "ru"
      ],
      [
        "Ġu",
        "n"
      ],
      [
        "Ġli",
        "ke"
      ],
      [
        "or",
        "n"
      ],
      [
        "is",
        "e"
      ],
      [
        "ou",
        "se"
      ],
      [
        "Ġ",
        "K"
      ],
      [
        "Ġ",
        "W"
      ],
      [
        "al",
        "t"
      ],
      [
        "ou",
        "nd"
      ],
      [
        "Ġp",
        "ro"
      ],
      [
        "Ġfa",
        "ther"
      ],
      [
        "Ġs",
        "ir"
      ],
      [
        "u",
        "d"
      ],
      [
        "Ġt",
        "w"
      ],
      [
        "A",
        "s"
      ],
      [
        "i",
        "re"
      ],
      [
        "Ġh",
        "ere"
      ],
      [
        "Ġb",
        "re"
      ],
      [
        "c",
        "k"
      ],
      [
        "Ġm",
        "en"
      ],
      [
        "e",
        "th"
      ],
      [
        "s",
        "h"
      ],
      [
        "im",
        "e"
      ],
      [
        "Ġwe",
        "ll"
      ],
      [
        "I",
        "O"
      ],
      [
        "r",
        "ow"
      ],
      [
        "F",
        "or"
      ],
      [
        "Ġhe",
        "art"
      ],
      [
        "Ġa",
        "f"
      ],
      [
        "L",
        "E"
      ],
      [
        "Ġ",
        "r"
      ],
      [
        "Y",
        "ou"
      ],
      [
        "ea",
        "k"
      ],
      [
        "Ġf",
        "l"
      ],
      [
        "er",
        "v"
      ],
      [
        "T",
        "H"
      ],
      [
        "b",
        "le"
      ],
      [
        "Ġe",
        "ar"
      ],
      [
        "Ġe",
        "y"
      ],
      [
        "Ġthe",
        "se"
      ],
      [
        "Ġbe",
        "fore"
      ],
      [
        "ra",
        "el"
      ],
      [
        "R",
        "O"
      ],
      [
        "Ġch",
        "ild"
      ],
      [
        "Ġ",
        "en"
      ],
      [
        "IN",
        "G"
      ],
      [
        "Ġh",
        "ouse"
      ],
      [
        "i",
        "ther"
      ],
      [
        "Ġin",
        "to"
      ],
      [
        "Ġg",
        "reat"
      ],
      [
        "Ġ",
        "qu"
      ],
      [
        "w",
        "ay"
      ],
      [
        "Ġ",
        "Wh"
      ],
      [
        "o",
        "ther"
      ],
      [
        "Ġp",
        "e"
      ],
      [
        "C",
        "H"
      ],
      [
        "nd",
        "er"
      ],
      [
        "Ġmad",
        "e"
      ],
      [
        "ou",
        "nt"
      ],
      [
        "a",
        "g"
      ],
      [
        "w",
        "n"
      ],
      [
        "E",
        "L"
      ],
      [
        "Ġg",
        "ive"
      ],
      [
        "m",
        "ent"
      ],
      [
        "ĠB",
        "ut"
      ],
      [
        "Ġmu",
        "st"
      ],
      [
        "Ġ",
        "ri"
      ],
      [
        "Ġw",
        "ord"
      ],
      [
        "op",
        "le"
      ],
      [
        "Ġd",
        "is"
      ],
      [
        "ĠIs",
        "rael"
      ],
      [
        "Ġy",
        "et"
      ],
      [
        "M",
        "y"
      ],
      [
        "a",
        "ce"
      ],
      [
        "b",
        "er"
      ],
      [
        "Ġc",
        "ame"
      ],
      [
        "I",
        "A"
      ],
      [
        "ĠĠ",
        "Ġ"
      ],
      [
        "a",
        "p"
      ],
      [
        "n",
        "g"
      ],
      [
        "Ġwh",
        "ere"
      ],
      [
        "au",
        "se"
      ],
      [
        "i",
        "gh"
      ],
      [
        "Ġt",
        "ake"
      ],
      [
        "Ġcom",
        "m"
      ],
      [
        "b",
        "e"
      ],
      [
        "Ġsu",
        "ch"
      ],
      [
        "Ġs",
        "ome"
      ],
      [
        "Ġm",
        "ine"
      ],
      [
        "Ġsp",
        "eak"
      ],
      [
        "Ġhe",
        "a"
      ],
      [
        "Ġsh",
        "alt"
      ],
      [
        "Ġ",
        "ro"
      ],
      [
        "Ġ",
        "[_"
      ],
      [
        "ac",
        "k"
      ],
      [
        "I",
        "R"
      ],
      [
        "re",
        "d"
      ],
      [
        "Ġl",
        "and"
      ],
      [
        "re",
        "e"
      ],
      [
        "ic",
        "k"
      ],
      [
        "Ġe",
        "x"
      ],
      [
        "h",
        "e"
      ],
      [
        "Ġt",
        "ime"
      ],
      [
        "K",
        "ING"
      ],
      [
        "a",
        "ge"
      ],
      [
        "it",
        "e"
      ],
      [
        "w",
        "ard"
      ],
      [
        "Ġb",
        "r"
      ],
      [
        "Ġpe",
        "ople"
      ],
      [
        "Ġh",
        "on"
      ],
      [
        "Ġan",
        "y"
      ],
      [
        "an",
        "g"
      ],
      [
        "H",
        "e"
      ],
      [
        "I",
        "US"
      ],
      [
        "L",
        "O"
      ],
      [
        "e",
        "et"
      ],
      [
        "Ġha",
        "st"
      ],
      [
        "s",
        "o"
      ],
      [
        "u",
        "ll"
      ],
      [
        "Ġb",
        "ro"
      ],
      [
        "u",
        "nt"
      ],
      [
        "Ġhe",
        "ar"
      ],
      [
        "Ġto",
        "o"
      ],
      [
        "v",
        "ed"
      ],
      [
        "au",
        "ght"
      ],
      [
        "er",
        "y"
      ],
      [
        "Ġ",
        "ra"
      ],
      [
        "it",
        "t"
      ],
      [
        "oc",
        "k"
      ],
      [
        "el",
        "d"
      ],
      [
        "Ġagain",
        "st"
      ],
      [
        "an",
        "s"
      ],
      [
        "i",
        "p"
      ],
      [
        "ai",
        "th"
      ],
      [
        "res",
        "s"
      ],
      [
        "Ġchild",
        "ren"
      ],
      [
        "Ġd",
        "es"
      ],
      [
        "u",
        "st"
      ],
      [
        "f",
        "ul"
      ],
      [
        "Ġd",
        "own"
      ],
      [
        "Ġc",
        "all"
      ],
      [
        "Ġh",
        "ow"
      ],
      [
        "ig",
        "n"
      ],
      [
        "I",
        "f"
      ],
      [
        "a",
        "ch"
      ],
      [
        "1",
        "1"
      ],
      [
        "1",
        "0"
      ],
      [
        "Ġp",
        "o"
      ],
      [
        "Ġwh",
        "o"
      ],
      [
        "Ġg",
        "ra"
      ],
      [
        "Ġo",
        "ther"
      ],
      [
        "c",
        "c"
      ],
      [
        "i",
        "le"
      ],
      [
        "th",
        "ing"
      ],
      [
        "i",
        "o"
      ],
      [
        "ou",
        "l"
      ],
      [
        "W",
        "ith"
      ],
      [
        "E",
        "nter"
      ],
      [
        "ĠF",
        "or"
      ],
      [
        "Ġar",
        "t"
      ],
      [
        "Ġever",
        "y"
      ],
      [
        "ad",
        "y"
      ],
      [
        "f",
        "f"
      ],
      [
        "ĠL",
        "ord"
      ],
      [
        "Ġn",
        "or"
      ],
      [
        "ĠK",
        "ing"
      ],
      [
        "ĠH",
        "e"
      ],
      [
        "Ġbe",
        "t"
      ],
      [
        "Ġbl",
        "ood"
      ],
      [
        "Ġn",
        "ame"
      ],
      [
        "Ġc",
        "o"
      ],
      [
        "Ġtw",
        "o"
      ],
      [
        "n",
        "ot"
      ],
      [
        "Ġp",
        "art"
      ],
      [
        "Ġs",
        "erv"
      ],
      [
        "âĢ",
        "ľ"
      ],
      [
        "Ġa",
        "way"
      ],
      [
        "I",
        "n"
      ],
      [
        "Ġf",
        "ri"
      ],
      [
        "Ġhea",
        "ven"
      ],
      [
        "Ġmu",
        "ch"
      ],
      [
        "Ġli",
        "fe"
      ],
      [
        "h",
        "old"
      ],
      [
        "Ġw",
        "ay"
      ],
      [
        "Ġth",
        "ink"
      ],
      [
        "Ġc",
        "l"
      ],
      [
        "Ġde",
        "ath"
      ],
      [
        "Ġo",
        "wn"
      ],
      [
        "Ġlo",
        "ok"
      ],
      [
        "Ġp",
        "ri"
      ],
      [
        "a",
        "se"
      ],
      [
        "ear",
        "s"
      ],
      [
        "Ġp",
        "ut"
      ],
      [
        "Ġp",
        "er"
      ],
      [
        "ast",
        "er"
      ],
      [
        "Ġe",
        "ven"
      ],
      [
        "ar",
        "k"
      ],
      [
        "Ġaf",
        "ter"
      ],
      [
        "Ġ",
        "ke"
      ],
      [
        "AN",
        "T"
      ],
      [
        "Ġs",
        "c"
      ],
      [
        "AR",
        "D"
      ],
      [
        "f",
        "t"
      ],
      [
        "Ġp",
        "ass"
      ],
      [
        "Ġt",
        "ell"
      ],
      [
        "in",
        "ce"
      ],
      [
        "e",
        "e"
      ],
      [
        "Ġey",
        "es"
      ],
      [
        "A",
        "M"
      ],
      [
        "a",
        "v"
      ],
      [
        "Ġo",
        "ver"
      ],
      [
        "Ġoff",
        "er"
      ],
      [
        "Ġm",
        "ight"
      ],
      [
        "ir",
        "st"
      ],
      [
        "1",
        "3"
      ],
      [
        "N",
        "o"
      ],
      [
        "o",
        "th"
      ],
      [
        "Ġm",
        "ost"
      ],
      [
        "Ġs",
        "l"
      ],
      [
        "Ġst",
        "r"
      ],
      [
        "Ġdo",
        "th"
      ],
      [
        "Ġfri",
        "end"
      ],
      [
        "1",
        "2"
      ],
      [
        "l",
        "es"
      ],
      [
        "e",
        "unt"
      ],
      [
        "s",
        "w"
      ],
      [
        "1",
        "4"
      ],
      [
        "Th",
        "ou"
      ],
      [
        "I",
        "C"
      ],
      [
        "ent",
        "le"
      ],
      [
        "a",
        "w"
      ],
      [
        "B",
        "e"
      ],
      [
        "EN",
        "E"
      ],
      [
        "Ġn",
        "ight"
      ],
      [
        "Ġne",
        "ver"
      ],
      [
        "ES",
        "S"
      ],
      [
        "a",
        "id"
      ],
      [
        "i",
        "ous"
      ],
      [
        "l",
        "t"
      ],
      [
        "ĠE",
        "nter"
      ],
      [
        "âĢ",
        "Ŀ"
      ],
      [
        "I",
        "L"
      ],
      [
        "Ġp",
        "re"
      ],
      [
        "Wh",
        "y"
      ],
      [
        "p",
        "e"
      ],
      [
        "Ġw",
        "om"
      ],
      [
        "Ex",
        "eunt"
      ],
      [
        "O",
        "f"
      ],
      [
        "i",
        "ed"
      ],
      [
        "Ġd",
        "one"
      ],
      [
        "p",
        "er"
      ],
      [
        "l",
        "ed"
      ],
      [
        "t",
        "y"
      ],
      [
        "H",
        "ow"
      ],
      [
        "Ġw",
        "ar"
      ],
      [
        "Ġpr",
        "ay"
      ],
      [
        "f",
        "or"
      ],
      [
        "ĠĠĠĠ",
        "ĠĠĠĠ"
      ],
      [
        "Ġth",
        "ine"
      ],
      [
        "Ġfa",
        "ir"
      ],
      [
        "Ġw",
        "r"
      ],
      [
        "Ex",
        "it"
      ],
      [
        "e",
        "w"
      ],
      [
        "Th",
        "is"
      ],
      [
        "Ġp",
        "le"
      ],
      [
        "Ġf",
        "ear"
      ],
      [
        "1",
        "5"
      ],
      [
        "Ġhon",
        "our"
      ],
      [
        "I",
        "s"
      ],
      [
        "Ġbe",
        "g"
      ],
      [
        "i",
        "us"
      ],
      [
        "S",
        "o"
      ],
      [
        "A",
        "T"
      ],
      [
        "Ġbe",
        "c"
      ],
      [
        "Ġa",
        "pp"
      ],
      [
        "Ġre",
        "m"
      ],
      [
        "Wh",
        "ich"
      ],
      [
        "m",
        "an"
      ],
      [
        "Ġa",
        "d"
      ],
      [
        "Ġ",
        "V"
      ],
      [
        "Ġear",
        "th"
      ],
      [
        "1",
        "6"
      ],
      [
        "Ġhe",
        "ad"
      ],
      [
        "ĠTh",
        "en"
      ],
      [
        "ĠB",
        "e"
      ],
      [
        "ab",
        "le"
      ],
      [
        "Ġ",
        "What"
      ],
      [
        "i",
        "a"
      ],
      [
        "i",
        "v"
      ],
      [
        "Ġ",
        "ru"
      ],
      [
        "Ġw",
        "ent"
      ],
      [
        "Ġsw",
        "eet"
      ],
      [
        "Ġs",
        "et"
      ],
      [
        "Ġg",
        "l"
      ],
      [
        "w",
        "h"
      ],
      [
        "en",
        "e"
      ],
      [
        "Ġh",
        "o"
      ],
      [
        "U",
        "C"
      ],
      [
        "ï",
        "¿½"
      ],
      [
        "Ġv",
        "ery"
      ],
      [
        "Ġal",
        "so"
      ],
      [
        "Ġs",
        "m"
      ],
      [
        "L",
        "A"
      ],
      [
        "n",
        "e"
      ],
      [
        "Ġa",
        "cc"
      ],
      [
        "Ġfor",
        "th"
      ],
      [
        "Ġbro",
        "ther"
      ],
      [
        "Ġo",
        "ld"
      ],
      [
        "Ġbr",
        "ing"
      ],
      [
        "or",
        "row"
      ],
      [
        "ant",
        "s"
      ],
      [
        "Ġ",
        "Y"
      ],
      [
        "Ġs",
        "oul"
      ],
      [
        "1",
        "8"
      ],
      [
        "Ġpl",
        "ace"
      ],
      [
        "e",
        "ed"
      ],
      [
        "Ġth",
        "ings"
      ],
      [
        "Ġst",
        "and"
      ],
      [
        "ow",
        "er"
      ],
      [
        "Ġwor",
        "ld"
      ],
      [
        "Ġf",
        "irst"
      ],
      [
        "Ġw",
        "at"
      ],
      [
        "rou",
        "ght"
      ],
      [
        "Ġbe",
        "en"
      ],
      [
        "Ġg",
        "entle"
      ],
      [
        "o",
        "ve"
      ],
      [
        "Ġ",
        "im"
      ],
      [
        "Ġe",
        "nd"
      ],
      [
        "Ġbe",
        "ar"
      ],
      [
        "S",
        "E"
      ],
      [
        "w",
        "ell"
      ],
      [
        "Ġson",
        "s"
      ],
      [
        "er",
        "t"
      ],
      [
        "Ġcom",
        "p"
      ],
      [
        "Ġd",
        "aught"
      ],
      [
        "1",
        "9"
      ],
      [
        "i",
        "eld"
      ],
      [
        "Ġtru",
        "e"
      ],
      [
        "o",
        "nd"
      ],
      [
        "Ġm",
        "ar"
      ],
      [
        "r",
        "own"
      ],
      [
        "Ġke",
        "ep"
      ],
      [
        "1",
        "7"
      ],
      [
        "ll",
        "ow"
      ],
      [
        "Ġp",
        "res"
      ],
      [
        "Ġcan",
        "not"
      ],
      [
        "ea",
        "ce"
      ],
      [
        "os",
        "es"
      ],
      [
        "it",
        "es"
      ],
      [
        "2",
        "0"
      ],
      [
        "Ġar",
        "m"
      ],
      [
        "Ġde",
        "ad"
      ],
      [
        "Ġman",
        "y"
      ],
      [
        "I",
        "t"
      ],
      [
        "i",
        "an"
      ],
      [
        "rou",
        "gh"
      ],
      [
        "k",
        "s"
      ],
      [
        "Ġsay",
        "ing"
      ],
      [
        "Ġc",
        "our"
      ],
      [
        "F",
        "F"
      ],
      [
        "2",
        "1"
      ],
      [
        "at",
        "ter"
      ],
      [
        "ere",
        "fore"
      ],
      [
        "a",
        "ther"
      ],
      [
        "l",
        "and"
      ],
      [
        "u",
        "ke"
      ],
      [
        "l",
        "ess"
      ],
      [
        "u",
        "b"
      ],
      [
        "ĠI",
        "f"
      ],
      [
        "t",
        "is"
      ],
      [
        "Ġm",
        "er"
      ],
      [
        "v",
        "il"
      ],
      [
        "Ġcomm",
        "and"
      ],
      [
        "W",
        "e"
      ],
      [
        "o",
        "h"
      ],
      [
        "u",
        "nd"
      ],
      [
        "Ġu",
        "nder"
      ],
      [
        "o",
        "y"
      ],
      [
        "e",
        "en"
      ],
      [
        "c",
        "es"
      ],
      [
        "it",
        "s"
      ],
      [
        "S",
        "h"
      ],
      [
        "Ġwi",
        "fe"
      ],
      [
        "2",
        "2"
      ],
      [
        "Ġbo",
        "th"
      ],
      [
        "Ġth",
        "us"
      ],
      [
        "ain",
        "t"
      ],
      [
        "ai",
        "l"
      ],
      [
        "er",
        "n"
      ],
      [
        "sw",
        "er"
      ],
      [
        "on",
        "s"
      ],
      [
        "Ġl",
        "ong"
      ],
      [
        "B",
        "y"
      ],
      [
        "Wh",
        "en"
      ],
      [
        "or",
        "s"
      ],
      [
        "Ġs",
        "in"
      ],
      [
        "SC",
        "ENE"
      ],
      [
        "Ġth",
        "ose"
      ],
      [
        "Ġthere",
        "fore"
      ],
      [
        "Ġt",
        "ri"
      ],
      [
        "A",
        "C"
      ],
      [
        "IR",
        "ST"
      ],
      [
        "in",
        "t"
      ],
      [
        "Ġwh",
        "om"
      ],
      [
        "F",
        "IRST"
      ],
      [
        "Ġt",
        "urn"
      ],
      [
        "Ġp",
        "ur"
      ],
      [
        "Ġre",
        "p"
      ],
      [
        "ĠC",
        "h"
      ],
      [
        "sel",
        "ves"
      ],
      [
        "i",
        "ver"
      ],
      [
        "Ġd",
        "el"
      ],
      [
        "Ġbe",
        "ing"
      ],
      [
        "Ġan",
        "swer"
      ],
      [
        "ct",
        "ion"
      ],
      [
        "C",
        "A"
      ],
      [
        "Ġ",
        "âĢľ"
      ],
      [
        "Ġthou",
        "ght"
      ],
      [
        "P",
        "H"
      ],
      [
        "U",
        "R"
      ],
      [
        "v",
        "ing"
      ],
      [
        "Ġhim",
        "self"
      ],
      [
        "al",
        "k"
      ],
      [
        "O",
        "r"
      ],
      [
        "s",
        "and"
      ],
      [
        "ĠM",
        "oses"
      ],
      [
        "m",
        "en"
      ],
      [
        "Ġ",
        "ent"
      ],
      [
        "c",
        "ene"
      ],
      [
        "is",
        "s"
      ],
      [
        "Wh",
        "ere"
      ],
      [
        "Ġword",
        "s"
      ],
      [
        "Ġfa",
        "ce"
      ],
      [
        "Ġne",
        "w"
      ],
      [
        "Ġli",
        "ve"
      ],
      [
        "re",
        "t"
      ],
      [
        "el",
        "y"
      ],
      [
        "T",
        "I"
      ],
      [
        "2",
        "3"
      ],
      [
        "Ġyou",
        "ng"
      ],
      [
        "Ġcon",
        "t"
      ],
      [
        "en",
        "s"
      ],
      [
        "Ġpo",
        "or"
      ],
      [
        "D",
        "U"
      ],
      [
        "Ġb",
        "rought"
      ],
      [
        "Ġday",
        "s"
      ],
      [
        "Ġd",
        "ie"
      ],
      [
        "Ġc",
        "ould"
      ],
      [
        "ri",
        "e"
      ],
      [
        "L",
        "et"
      ],
      [
        "T",
        "is"
      ],
      [
        "ri",
        "ed"
      ],
      [
        "Q",
        "U"
      ],
      [
        "Ġf",
        "ind"
      ],
      [
        "Ġg",
        "od"
      ],
      [
        "Ġab",
        "out"
      ],
      [
        "Ġle",
        "ave"
      ],
      [
        "c",
        "y"
      ],
      [
        "Ġhe",
        "ard"
      ],
      [
        "Ġre",
        "st"
      ],
      [
        "Ġf",
        "ell"
      ],
      [
        "Ġs",
        "ent"
      ],
      [
        "ĠS",
        "h"
      ],
      [
        "Ġfo",
        "ol"
      ],
      [
        "2",
        "4"
      ],
      [
        "Ġb",
        "u"
      ],
      [
        "Ġch",
        "ar"
      ],
      [
        "Ġth",
        "ing"
      ],
      [
        "ou",
        "gh"
      ],
      [
        "o",
        "ice"
      ],
      [
        "Ġe",
        "at"
      ],
      [
        ".",
        "]"
      ],
      [
        "e",
        "ver"
      ],
      [
        "Wh",
        "o"
      ],
      [
        "Ġg",
        "i"
      ],
      [
        "Ġw",
        "o"
      ],
      [
        "itt",
        "le"
      ],
      [
        "Ġthou",
        "sand"
      ],
      [
        "Ġno",
        "thing"
      ],
      [
        "Ġs",
        "le"
      ],
      [
        "d",
        "om"
      ],
      [
        "R",
        "I"
      ],
      [
        "Ġf",
        "all"
      ],
      [
        "et",
        "s"
      ],
      [
        "C",
        "ome"
      ],
      [
        "Ġl",
        "aw"
      ],
      [
        "Ġpri",
        "est"
      ],
      [
        "Ġsw",
        "ord"
      ],
      [
        "el",
        "s"
      ],
      [
        "o",
        "b"
      ],
      [
        "Ġbe",
        "l"
      ],
      [
        "Ġst",
        "ill"
      ],
      [
        "A",
        "y"
      ],
      [
        "g",
        "y"
      ],
      [
        "Ġf",
        "ire"
      ],
      [
        "Ġcon",
        "s"
      ],
      [
        "Ġdaught",
        "er"
      ],
      [
        "EN",
        "T"
      ],
      [
        "Ġbet",
        "ter"
      ],
      [
        "Ġt",
        "re"
      ],
      [
        "ak",
        "es"
      ],
      [
        "w",
        "ith"
      ],
      [
        "Ġno",
        "ble"
      ],
      [
        "AN",
        "D"
      ],
      [
        "rou",
        "nd"
      ],
      [
        "Ġwom",
        "an"
      ],
      [
        "Ġto",
        "ok"
      ],
      [
        "N",
        "ow"
      ],
      [
        "Ġre",
        "t"
      ],
      [
        "Ġc",
        "ity"
      ],
      [
        "Ġl",
        "ittle"
      ],
      [
        "es",
        "h"
      ],
      [
        "Ġp",
        "eace"
      ],
      [
        "Ġh",
        "igh"
      ],
      [
        "ĠD",
        "uke"
      ],
      [
        "E",
        "T"
      ],
      [
        "Ġam",
        "ong"
      ],
      [
        "Ġan",
        "other"
      ],
      [
        "Ġth",
        "ree"
      ],
      [
        "ou",
        "th"
      ],
      [
        "Ġn",
        "one"
      ],
      [
        "ĠP",
        "h"
      ],
      [
        "al",
        "e"
      ],
      [
        "or",
        "y"
      ],
      [
        "Ġ",
        "el"
      ],
      [
        "C",
        "E"
      ],
      [
        "th",
        "at"
      ],
      [
        "Ġl",
        "ady"
      ],
      [
        "Ġan",
        "g"
      ],
      [
        "os",
        "s"
      ],
      [
        "ow",
        "s"
      ],
      [
        "Ġsa",
        "w"
      ],
      [
        "as",
        "on"
      ],
      [
        "Ġgo",
        "ld"
      ],
      [
        "Ġj",
        "ud"
      ],
      [
        "Ġbec",
        "ause"
      ],
      [
        "gy",
        "pt"
      ],
      [
        "Ġb",
        "est"
      ],
      [
        "Ġth",
        "rough"
      ],
      [
        "Ġm",
        "other"
      ],
      [
        "Ġh",
        "old"
      ],
      [
        "2",
        "5"
      ],
      [
        "te",
        "nd"
      ],
      [
        "Ġcom",
        "es"
      ],
      [
        "_",
        ".]"
      ],
      [
        "2",
        "6"
      ],
      [
        "Ġli",
        "e"
      ],
      [
        "m",
        "b"
      ],
      [
        "in",
        "s"
      ],
      [
        "a",
        "pt"
      ],
      [
        "Y",
        "our"
      ],
      [
        "a",
        "z"
      ],
      [
        "Ġcon",
        "f"
      ],
      [
        "Ġhand",
        "s"
      ],
      [
        "Ġt",
        "ong"
      ],
      [
        "ain",
        "s"
      ],
      [
        "Ġri",
        "ght"
      ],
      [
        "Ġfo",
        "llow"
      ],
      [
        "i",
        "ke"
      ],
      [
        "C",
        "ON"
      ],
      [
        "Ġk",
        "ind"
      ],
      [
        "Ġey",
        "e"
      ],
      [
        "i",
        "er"
      ],
      [
        "s",
        "s"
      ],
      [
        "b",
        "s"
      ],
      [
        "Ġb",
        "ra"
      ],
      [
        "ge",
        "ther"
      ],
      [
        "ĠTh",
        "ou"
      ],
      [
        "Ġli",
        "ght"
      ],
      [
        "Ġs",
        "aith"
      ],
      [
        "Ġm",
        "aster"
      ],
      [
        "Ġf",
        "ull"
      ],
      [
        "Ġc",
        "ur"
      ],
      [
        "ar",
        "ry"
      ],
      [
        "Th",
        "en"
      ],
      [
        "is",
        "ter"
      ],
      [
        "Ġg",
        "one"
      ],
      [
        "Ġc",
        "ount"
      ],
      [
        "m",
        "p"
      ],
      [
        "Ġsp",
        "ir"
      ],
      [
        "ĠN",
        "ow"
      ],
      [
        "Ġbe",
        "hold"
      ],
      [
        "ord",
        "ing"
      ],
      [
        "Ġs",
        "ame"
      ],
      [
        "Ġw",
        "it"
      ],
      [
        "p",
        "s"
      ],
      [
        "th",
        "y"
      ],
      [
        "i",
        "ah"
      ],
      [
        "ar",
        "s"
      ],
      [
        "t",
        "le"
      ],
      [
        "Ġmy",
        "self"
      ],
      [
        "ist",
        "ress"
      ],
      [
        "Ġwh",
        "ose"
      ],
      [
        "ar",
        "y"
      ],
      [
        "ST",
        "A"
      ],
      [
        "an",
        "ge"
      ],
      [
        "ĠL",
        "et"
      ],
      [
        "I",
        "S"
      ],
      [
        "c",
        "l"
      ],
      [
        "p",
        "le"
      ],
      [
        "K",
        "E"
      ],
      [
        "Ġne",
        "ither"
      ],
      [
        "ou",
        "ght"
      ],
      [
        "ĠR",
        "ome"
      ],
      [
        "ĠS",
        "o"
      ],
      [
        "Ġ",
        "3"
      ],
      [
        "is",
        "on"
      ],
      [
        "ĠE",
        "gypt"
      ],
      [
        "er",
        "ve"
      ],
      [
        "Ġoffer",
        "ing"
      ],
      [
        "un",
        "e"
      ],
      [
        "r",
        "ink"
      ],
      [
        "Ġg",
        "u"
      ],
      [
        "our",
        "s"
      ],
      [
        "es",
        "e"
      ],
      [
        "o",
        "ver"
      ],
      [
        "as",
        "h"
      ],
      [
        "E",
        "M"
      ],
      [
        "2",
        "7"
      ],
      [
        "p",
        "on"
      ],
      [
        "u",
        "ck"
      ],
      [
        "Ġthere",
        "of"
      ],
      [
        "Ġy",
        "ears"
      ],
      [
        "r",
        "ance"
      ],
      [
        "Ġc",
        "ause"
      ],
      [
        "ut",
        "y"
      ],
      [
        "B",
        "ER"
      ],
      [
        "Ġm",
        "on"
      ],
      [
        "Ġd",
        "re"
      ],
      [
        "Th",
        "ere"
      ],
      [
        "und",
        "red"
      ],
      [
        "Ġ",
        "ind"
      ],
      [
        "H",
        "ere"
      ],
      [
        "Ġh",
        "op"
      ],
      [
        "Ġm",
        "ind"
      ],
      [
        "h",
        "er"
      ],
      [
        "Ġf",
        "aith"
      ],
      [
        "as",
        "ure"
      ],
      [
        "Ġt",
        "ill"
      ],
      [
        "ation",
        "s"
      ],
      [
        "d",
        "er"
      ],
      [
        "c",
        "ome"
      ],
      [
        "Ġde",
        "ar"
      ],
      [
        "Ġb",
        "ur"
      ],
      [
        "es",
        "us"
      ],
      [
        "The",
        "y"
      ],
      [
        "ou",
        "ch"
      ],
      [
        "i",
        "ence"
      ],
      [
        "ĠA",
        "b"
      ],
      [
        "in",
        "ess"
      ],
      [
        "ĠTh",
        "is"
      ],
      [
        "c",
        "le"
      ],
      [
        "S",
        "he"
      ],
      [
        "k",
        "en"
      ],
      [
        "b",
        "and"
      ],
      [
        "Ġs",
        "te"
      ],
      [
        "I",
        "AN"
      ],
      [
        "Ġk",
        "ill"
      ],
      [
        "ion",
        "s"
      ],
      [
        "at",
        "ch"
      ],
      [
        "it",
        "ies"
      ],
      [
        "av",
        "id"
      ],
      [
        "Ġsu",
        "b"
      ],
      [
        "Ġwor",
        "k"
      ],
      [
        "Ġpres",
        "ent"
      ],
      [
        "H",
        "is"
      ],
      [
        "Ġp",
        "ra"
      ],
      [
        "Ġwith",
        "out"
      ],
      [
        "Ġg",
        "ave"
      ],
      [
        "us",
        "band"
      ],
      [
        "Ġg",
        "rie"
      ],
      [
        "r",
        "ant"
      ],
      [
        "r",
        "ay"
      ],
      [
        "Ġre",
        "s"
      ],
      [
        "CH",
        "ARD"
      ],
      [
        "S",
        "t"
      ],
      [
        "Ġp",
        "ower"
      ],
      [
        "ĠO",
        "F"
      ],
      [
        "o",
        "ok"
      ],
      [
        "Ġb",
        "ack"
      ],
      [
        "Ġn",
        "at"
      ],
      [
        "ment",
        "s"
      ],
      [
        "Ġsh",
        "ow"
      ],
      [
        "Ġret",
        "urn"
      ],
      [
        "i",
        "ly"
      ],
      [
        "Ġf",
        "e"
      ],
      [
        "d",
        "e"
      ],
      [
        "Ġt",
        "ra"
      ],
      [
        "Ġf",
        "ound"
      ],
      [
        "Ġse",
        "a"
      ],
      [
        "Ġbl",
        "ess"
      ],
      [
        "Th",
        "an"
      ],
      [
        "Ġthou",
        "gh"
      ],
      [
        "H",
        "AM"
      ],
      [
        "Ġho",
        "ly"
      ],
      [
        "Ġtong",
        "ue"
      ],
      [
        "Ġto",
        "gether"
      ],
      [
        "p",
        "en"
      ],
      [
        "a",
        "ir"
      ],
      [
        "LE",
        "T"
      ],
      [
        "CON",
        "D"
      ],
      [
        "Ġ",
        "Z"
      ],
      [
        "ert",
        "ain"
      ],
      [
        "Ġgod",
        "s"
      ],
      [
        "IN",
        "E"
      ],
      [
        "sh",
        "all"
      ],
      [
        "R",
        "Y"
      ],
      [
        "Ġb",
        "od"
      ],
      [
        "Ġen",
        "em"
      ],
      [
        "B",
        "E"
      ],
      [
        "Ġh",
        "undred"
      ],
      [
        "S",
        "S"
      ],
      [
        "r",
        "ing"
      ],
      [
        "es",
        "ar"
      ],
      [
        "Ġas",
        "s"
      ],
      [
        "ie",
        "f"
      ],
      [
        "E",
        "EN"
      ],
      [
        "ĠA",
        "n"
      ],
      [
        "Ġcall",
        "ed"
      ],
      [
        "ĠA",
        "nt"
      ],
      [
        "ĠD",
        "avid"
      ],
      [
        "ĠJ",
        "ud"
      ],
      [
        "Ġdis",
        "c"
      ],
      [
        "W",
        "ell"
      ],
      [
        "Ġn",
        "ear"
      ],
      [
        "SE",
        "COND"
      ],
      [
        "Ġfriend",
        "s"
      ],
      [
        "ed",
        "s"
      ],
      [
        "Ġst",
        "ay"
      ],
      [
        "Ġm",
        "ount"
      ],
      [
        "Ġsu",
        "re"
      ],
      [
        "Ġm",
        "o"
      ],
      [
        "sh",
        "ip"
      ],
      [
        "Ġb",
        "es"
      ],
      [
        "is",
        "ed"
      ],
      [
        "Ġd",
        "ra"
      ],
      [
        "ee",
        "ch"
      ],
      [
        "Ġcour",
        "t"
      ],
      [
        "g",
        "ed"
      ],
      [
        "ĠJ",
        "er"
      ],
      [
        "n",
        "er"
      ],
      [
        "T",
        "ER"
      ],
      [
        "Ġf",
        "ar"
      ],
      [
        "Ġse",
        "em"
      ],
      [
        "QU",
        "EEN"
      ],
      [
        "Ġh",
        "usband"
      ],
      [
        "on",
        "t"
      ],
      [
        "Ġdel",
        "iver"
      ],
      [
        "ou",
        "n"
      ],
      [
        "el",
        "p"
      ],
      [
        "us",
        "h"
      ],
      [
        "ĠE",
        "ng"
      ],
      [
        "D",
        "o"
      ],
      [
        "a",
        "esar"
      ],
      [
        "Ġgi",
        "ven"
      ],
      [
        "STA",
        "FF"
      ],
      [
        "N",
        "ot"
      ],
      [
        "ad",
        "e"
      ],
      [
        "Ġv",
        "ir"
      ],
      [
        "Ġse",
        "ven"
      ],
      [
        "Ġacc",
        "ording"
      ],
      [
        "n",
        "ing"
      ],
      [
        "Ġpl",
        "ay"
      ],
      [
        "ir",
        "d"
      ],
      [
        "ut",
        "e"
      ],
      [
        "AL",
        "STAFF"
      ],
      [
        "w",
        "een"
      ],
      [
        "Ġfor",
        "t"
      ],
      [
        "ĠS",
        "ir"
      ],
      [
        "at",
        "es"
      ],
      [
        "F",
        "ALSTAFF"
      ],
      [
        "Ġse",
        "c"
      ],
      [
        "Ġtru",
        "th"
      ],
      [
        "W",
        "N"
      ],
      [
        "im",
        "es"
      ],
      [
        "Ġs",
        "ide"
      ],
      [
        ".",
        "âĢĶ"
      ],
      [
        "ent",
        "s"
      ],
      [
        "Ġwi",
        "nd"
      ],
      [
        "Ġs",
        "ight"
      ],
      [
        "Ġle",
        "ft"
      ],
      [
        "2",
        "9"
      ],
      [
        "u",
        "c"
      ],
      [
        "i",
        "x"
      ],
      [
        "ro",
        "y"
      ],
      [
        "G",
        "ood"
      ],
      [
        "Ġme",
        "et"
      ],
      [
        "Ġf",
        "ield"
      ],
      [
        "Ġl",
        "ay"
      ],
      [
        "M",
        "AN"
      ],
      [
        "Ġ",
        "You"
      ],
      [
        "Ġf",
        "al"
      ],
      [
        "ĠJ",
        "esus"
      ],
      [
        "ic",
        "t"
      ],
      [
        "DU",
        "KE"
      ],
      [
        "E",
        "D"
      ],
      [
        "g",
        "th"
      ],
      [
        "or",
        "se"
      ],
      [
        "an",
        "y"
      ],
      [
        "Ġstr",
        "ong"
      ],
      [
        "Ġspir",
        "it"
      ],
      [
        "Ġse",
        "en"
      ],
      [
        "Ġwith",
        "in"
      ],
      [
        "est",
        "y"
      ],
      [
        "Ġbo",
        "y"
      ],
      [
        "N",
        "ay"
      ],
      [
        "U",
        "L"
      ],
      [
        "Ġ",
        "To"
      ],
      [
        "Ġs",
        "il"
      ],
      [
        "Ġhop",
        "e"
      ],
      [
        "Ġel",
        "se"
      ],
      [
        "S",
        "ir"
      ],
      [
        "Ġgra",
        "ce"
      ],
      [
        "on",
        "y"
      ],
      [
        "Ġsp",
        "ake"
      ],
      [
        "Ġf",
        "our"
      ],
      [
        "Ġfor",
        "g"
      ],
      [
        "the",
        "e"
      ],
      [
        "R",
        "IN"
      ],
      [
        "ent",
        "y"
      ],
      [
        "ĠM",
        "y"
      ],
      [
        "t",
        "w"
      ],
      [
        "Ġv",
        "oice"
      ],
      [
        "A",
        "G"
      ],
      [
        "b",
        "t"
      ],
      [
        "ĠL",
        "e"
      ],
      [
        "i",
        "z"
      ],
      [
        "ra",
        "ce"
      ],
      [
        "Ġj",
        "ust"
      ],
      [
        "Ġbe",
        "a"
      ],
      [
        "IC",
        "K"
      ],
      [
        "ish",
        "ed"
      ],
      [
        "Ġon",
        "ce"
      ],
      [
        "fe",
        "ct"
      ],
      [
        "RO",
        "S"
      ],
      [
        "L",
        "UC"
      ],
      [
        "3",
        "0"
      ],
      [
        "Ġm",
        "atter"
      ],
      [
        "3",
        "1"
      ],
      [
        "Ġc",
        "ast"
      ],
      [
        "B",
        "A"
      ],
      [
        "u",
        "ch"
      ],
      [
        "Ġc",
        "rown"
      ],
      [
        "h",
        "am"
      ],
      [
        "O",
        "TH"
      ],
      [
        "W",
        "ill"
      ],
      [
        "Ġf",
        "am"
      ],
      [
        "Ġwat",
        "er"
      ],
      [
        "I",
        "D"
      ],
      [
        "Ġim",
        "p"
      ],
      [
        "Ġserv",
        "ant"
      ],
      [
        "ĠI",
        "I"
      ],
      [
        "ĠA",
        "r"
      ],
      [
        "Ġv",
        "ill"
      ],
      [
        "us",
        "al"
      ],
      [
        "um",
        "ber"
      ],
      [
        "Sh",
        "all"
      ],
      [
        "Ġwr",
        "ong"
      ],
      [
        "ĠC",
        "ome"
      ],
      [
        "usal",
        "em"
      ],
      [
        "ANT",
        "ON"
      ],
      [
        "Ġd",
        "rink"
      ],
      [
        "Ġsh",
        "ame"
      ],
      [
        "am",
        "p"
      ],
      [
        "Ġe",
        "vil"
      ],
      [
        "f",
        "ort"
      ],
      [
        "ĠC",
        "l"
      ],
      [
        "O",
        "ST"
      ],
      [
        "Ġme",
        "an"
      ],
      [
        "oh",
        "n"
      ],
      [
        "R",
        "ESS"
      ],
      [
        "Ġsle",
        "ep"
      ],
      [
        "le",
        "t"
      ],
      [
        "ce",
        "ive"
      ],
      [
        "Ġsu",
        "n"
      ],
      [
        "Ġbre",
        "ak"
      ],
      [
        "ĠJud",
        "ah"
      ],
      [
        "Ġt",
        "en"
      ],
      [
        "Ġb",
        "ed"
      ],
      [
        "ak",
        "en"
      ],
      [
        "o",
        "ke"
      ],
      [
        "o",
        "int"
      ],
      [
        "Ġm",
        "aid"
      ],
      [
        "Ġt",
        "em"
      ],
      [
        "c",
        "om"
      ],
      [
        "Ġb",
        "id"
      ],
      [
        "ĠC",
        "aesar"
      ],
      [
        "Ġse",
        "nd"
      ],
      [
        "G",
        "O"
      ],
      [
        "M",
        "AR"
      ],
      [
        "Ġd",
        "ou"
      ],
      [
        "ĠI",
        "t"
      ],
      [
        "n",
        "ed"
      ],
      [
        "Ġto",
        "ld"
      ],
      [
        "r",
        "ist"
      ],
      [
        "Ġm",
        "outh"
      ],
      [
        "Ġfl",
        "esh"
      ],
      [
        "H",
        "ave"
      ],
      [
        "Ġh",
        "ar"
      ],
      [
        "G",
        "o"
      ],
      [
        "e",
        "ct"
      ],
      [
        "d",
        "en"
      ],
      [
        "Ġh",
        "um"
      ],
      [
        "Ġm",
        "is"
      ],
      [
        "ĠH",
        "ow"
      ],
      [
        "Ġh",
        "our"
      ],
      [
        "Ġlet",
        "ter"
      ],
      [
        "d",
        "ay"
      ],
      [
        "U",
        "N"
      ],
      [
        "one",
        "y"
      ],
      [
        "Ġbod",
        "y"
      ],
      [
        "3",
        "2"
      ],
      [
        "Th",
        "y"
      ],
      [
        "p",
        "l"
      ],
      [
        "Ġso",
        "ld"
      ],
      [
        "Ġst",
        "ri"
      ],
      [
        "ur",
        "y"
      ],
      [
        "ie",
        "ve"
      ],
      [
        "Ġh",
        "ence"
      ],
      [
        "ang",
        "er"
      ],
      [
        "if",
        "t"
      ],
      [
        "N",
        "or"
      ],
      [
        "ĠTh",
        "at"
      ],
      [
        "ĠF",
        "rance"
      ],
      [
        "Ġh",
        "elp"
      ],
      [
        "P",
        "RIN"
      ],
      [
        "b",
        "l"
      ],
      [
        "Ġon",
        "ly"
      ],
      [
        "A",
        "l"
      ],
      [
        "Ġfal",
        "se"
      ],
      [
        "As",
        "ide"
      ],
      [
        "Ġf",
        "ight"
      ],
      [
        "Ġdo",
        "st"
      ],
      [
        "i",
        "ent"
      ],
      [
        "pe",
        "ct"
      ],
      [
        "ou",
        "d"
      ],
      [
        "at",
        "tle"
      ],
      [
        "e",
        "b"
      ],
      [
        "Ġc",
        "apt"
      ],
      [
        "it",
        "ion"
      ],
      [
        "Ġind",
        "eed"
      ],
      [
        "L",
        "ES"
      ],
      [
        "Ġd",
        "est"
      ],
      [
        "EN",
        "RY"
      ],
      [
        "au",
        "l"
      ],
      [
        "I",
        "ST"
      ],
      [
        "el",
        "come"
      ],
      [
        "est",
        "er"
      ],
      [
        "ĠP",
        "r"
      ],
      [
        "Ġwi",
        "lt"
      ],
      [
        "au",
        "lt"
      ],
      [
        "Ġpr",
        "in"
      ],
      [
        "Ġc",
        "ut"
      ],
      [
        "T",
        "R"
      ],
      [
        "Ġrem",
        "em"
      ],
      [
        "g",
        "er"
      ],
      [
        "Ġha",
        "s"
      ],
      [
        "âĢ",
        "ĺ"
      ],
      [
        "Ġple",
        "ase"
      ],
      [
        "ĠWh",
        "en"
      ],
      [
        "or",
        "k"
      ],
      [
        "th",
        "em"
      ],
      [
        "ĠH",
        "ENRY"
      ],
      [
        ",",
        "âĢĶ"
      ],
      [
        "ĠJ",
        "ohn"
      ],
      [
        "Ġj",
        "oy"
      ],
      [
        "n",
        "ow"
      ],
      [
        "Ġh",
        "ome"
      ],
      [
        "re",
        "w"
      ],
      [
        "Ġ",
        "Q"
      ],
      [
        "Ġu",
        "nt"
      ],
      [
        "3",
        "3"
      ],
      [
        "th",
        "ren"
      ],
      [
        "ch",
        "ed"
      ],
      [
        "Ġun",
        "cle"
      ],
      [
        "ck",
        "ed"
      ],
      [
        "ar",
        "on"
      ],
      [
        "f",
        "er"
      ],
      [
        "Ġs",
        "ound"
      ],
      [
        "Ġh",
        "ost"
      ],
      [
        "B",
        "R"
      ],
      [
        "Ġb",
        "orn"
      ],
      [
        "Ġv",
        "al"
      ],
      [
        "Ġgen",
        "er"
      ],
      [
        "ĠS",
        "cene"
      ],
      [
        "c",
        "ious"
      ],
      [
        "Ġw",
        "a"
      ],
      [
        "Ġd",
        "well"
      ],
      [
        "Ġpro",
        "ph"
      ],
      [
        "Ġp",
        "oss"
      ],
      [
        "Ġwh",
        "y"
      ],
      [
        "gain",
        "st"
      ],
      [
        "Ġre",
        "ason"
      ],
      [
        "Ġthem",
        "selves"
      ],
      [
        "F",
        "rom"
      ],
      [
        "Y",
        "et"
      ],
      [
        "Ġc",
        "ry"
      ],
      [
        "Ġyou",
        "th"
      ],
      [
        "Ġin",
        "st"
      ],
      [
        "m",
        "s"
      ],
      [
        "ĠM",
        "ar"
      ],
      [
        "e",
        "c"
      ],
      [
        "re",
        "g"
      ],
      [
        "at",
        "s"
      ],
      [
        "u",
        "es"
      ],
      [
        "ĠI",
        "II"
      ],
      [
        "Ġlord",
        "s"
      ],
      [
        "Ġdes",
        "ire"
      ],
      [
        "Ġp",
        "ers"
      ],
      [
        "Ġh",
        "ither"
      ],
      [
        "Ġh",
        "ang"
      ],
      [
        "ĠJer",
        "usalem"
      ],
      [
        "Ġsee",
        "k"
      ],
      [
        "b",
        "y"
      ],
      [
        "Ġb",
        "urn"
      ],
      [
        "te",
        "ous"
      ],
      [
        "v",
        "y"
      ],
      [
        "ĠA",
        "s"
      ],
      [
        "il",
        "t"
      ],
      [
        "Ġbet",
        "ween"
      ],
      [
        "L",
        "ORD"
      ],
      [
        "S",
        "cene"
      ],
      [
        "Ġin",
        "c"
      ],
      [
        "O",
        "ur"
      ],
      [
        "i",
        "et"
      ],
      [
        "ĠThe",
        "y"
      ],
      [
        "U",
        "pon"
      ],
      [
        "m",
        "er"
      ],
      [
        "Ġl",
        "ast"
      ],
      [
        "h",
        "is"
      ],
      [
        "Ġc",
        "le"
      ],
      [
        "Ġbre",
        "ath"
      ],
      [
        "A",
        "ll"
      ]
    ]
  }
}