{
  "version": "1.0",
  "truncation": null,
  "padding": null,
  "added_tokens": [
    {
      "id": 0,
      "content": "<unk>",
      "single_word": false,
      "lstrip": false,
      "rstrip": false,
      "normalized": false,
      "special": true
    }
  ],
  "normalizer": null,
  "pre_tokenizer": {
    "type": "ByteLevel",
    "add_prefix_space": false,
    "trim_offsets": true,
    "use_regex": true
  },
  "post_processor": null,
  "decoder": null,
  "model": {
    "type": "BPE",
    "dropout": null,
    "unk_token": "<unk>",
    "continuing_subword_prefix": null,
    "end_of_word_suffix": null,
    "fuse_unk": false,
    "byte_fallback": false,
    "ignore_merges": false,
    "vocab": {
      "<unk>": 0,
      "!": 1,
      "\"": 2,
      "#": 3,
      "$": 4,
      "%": 5,
      "&": 6,
      "'": 7,
      "(": 8,
      ")": 9,
      "*": 10,
      "+": 11,
      ",": 12,
      "-": 13,
      ".": 14,
      "/": 15,
      "0": 16,
      "1": 17,
      "2": 18,
      "3": 19,
      "4": 20,
      "5": 21,
      "6": 22,
      "7": 23,
      "8": 24,
      "9": 25,
      ":": 26,
      ";": 27,
      "<": 28,
      "=": 29,
      ">": 30,
      "?": 31,
      "@": 32,
      "A": 33,
      "B": 34,
      "C": 35,
      "D": 36,
      "E": 37,
      "F": 38,
      "G": 39,
      "H": 40,
      "I": 41,
      "J": 42,
      "K": 43,
      "L": 44,
      "M": 45,
      "N": 46,
      "O": 47,
      "P": 48,
      "Q": 49,
      "R": 50,
      "S": 51,
      "T": 52,
      "U": 53,
      "V": 54,
      "W": 55,
      "X": 56,
      "Y": 57,
      "Z": 58,
      "[": 59,
      "\\": 60,
      "]": 61,
      "^": 62,
      "_": 63,
      "`": 64,
      "a": 65,
      "b": 66,
      "c": 67,
      "d": 68,
      "e": 69,
      "f": 70,
      "g": 71,
      "h": 72,
      "i": 73,
      "j": 74,
      "k": 75,
      "l": 76,
      "m": 77,
      "n": 78,
      "o": 79,
      "p": 80,
      "q": 81,
      "r": 82,
      "s": 83,
      "t": 84,
      "u": 85,
      "v": 86,
      "w": 87,
      "x": 88,
      "y": 89,
      "z": 90,
      "{": 91,
      "|": 92,
      "}": 93,
      "~": 94,
      "¡": 95,
      "¢": 96,
      "£": 97,
      "¤": 98,
      "¥": 99,
      "¦": 100,
      "§": 101,
      "¨": 102,
      "©": 103,
      "ª": 104,
      "«": 105,
      "¬": 106,
      "®": 107,
      "¯": 108,
      "°": 109,
      "±": 110,
      "²": 111,
      "³": 112,
      "´": 113,
      "µ": 114,
      "¶": 115,
      "·": 116,
      "¸": 117,
      "¹": 118,
      "º": 119,
      "»": 120,
      "¼": 121,
      "½": 122,
      "¾": 123,
      "¿": 124,
      "À": 125,
      "Á": 126,
      "Â": 127,
      "Ã": 128,
      "Ä": 129,
      "Å": 130,
      "Æ": 131,
      "Ç": 132,
      "È": 133,
      "É": 134,
      "Ê": 135,
      "Ë": 136,
      "Ì": 137,
      "Í": 138,
      "Î": 139,
      "Ï": 140,
      "Ð": 141,
      "Ñ": 142,
      "Ò": 143,
      "Ó": 144,
      "Ô": 145,
      "Õ": 146,
      "Ö": 147,
      "×": 148,
      "Ø": 149,
      "Ù": 150,
      "Ú": 151,
      "Û": 152,
      "Ü": 153,
      "Ý": 154,
      "Þ": 155,
      "ß": 156,
      "à": 157,
      "á": 158,
      "â": 159,
      "ã": 160,
      "ä": 161,
      "å": 162,
      "æ": 163,
      "ç": 164,
      "è": 165,
      "é": 166,
      "ê": 167,
      "ë": 168,
      "ì": 169,
      "í": 170,
      "î": 171,
      "ï": 172,
      "ð": 173,
      "ñ": 174,
      "ò": 175,
      "ó": 176,
      "ô": 177,
      "õ": 178,
      "ö": 179,
      "÷": 180,
      "ø": 181,
      "ù": 182,
      "ú": 183,
      "û": 184,
      "ü": 185,
      "ý": 186,
      "þ": 187,
      "ÿ": 188,
      "Ā": 189,
      "ā": 190,
      "Ă": 191,
      "ă": 192,
      "Ą": 193,
      "ą": 194,
      "Ć": 195,
      "ć": 196,
      "Ĉ": 197,
      "ĉ": 198,
      "Ċ": 199,
      "ċ": 200,
      "Č": 201,
      "č": 202,
      "Ď": 203,
      "ď": 204,
      "Đ": 205,
      "đ": 206,
      "Ē": 207,
      "ē": 208,
      "Ĕ": 209,
      "ĕ": 210,
      "Ė": 211,
      "ė": 212,
      "Ę": 213,
      "ę": 214,
      "Ě": 215,
      "ě": 216,
      "Ĝ": 217,
      "ĝ": 218,
      "Ğ": 219,
      "ğ": 220,
      "Ġ": 221,
      "ġ": 222,
      "Ģ": 223,
      "ģ": 224,
      "Ĥ": 225,
      "ĥ": 226,
      "Ħ": 227,
      "ħ": 228,
      "Ĩ": 229,
      "ĩ": 230,
      "Ī": 231,
      "ī": 232,
      "Ĭ": 233,
      "ĭ": 234,
      "Į": 235,
      "į": 236,
      "İ": 237,
      "ı": 238,
      "Ĳ": 239,
      "ĳ": 240,
      "Ĵ": 241,
      "ĵ": 242,
      "Ķ": 243,
      "ķ": 244,
      "ĸ": 245,
      "Ĺ": 246,
      "ĺ": 247,
      "Ļ": 248,
      "ļ": 249,
      "Ľ": 250,
      "ľ": 251,
      "Ŀ": 252,
      "ŀ": 253,
      "Ł": 254,
      "ł": 255,
      "Ń": 256,
      "th": 257,
      "Ġth": 258,
      "Ġa": 259,
      "Ġthe": 260,
      "nd": 261,
      "Ġs": 262,
      "Ġh": 263,
      "er": 264,
      "in": 265,
      "ou": 266,
      "Ġw": 267,
      "Ġo": 268,
      "Ġm": 269,
      "re": 270,
      "Ġb": 271,
      "is": 272,
      "Ġt": 273,
      "ll": 274,
      "Ġand": 275,
      "Ġf": 276,
      "Ġof": 277,
      "en": 278,
      "or": 279,
      "at": 280,
      "es": 281,
      "on": 282,
      "Ġc": 283,
      "Ġd": 284,
      "ar": 285,
      "ed": 286,
      "Ġn": 287,
      "an": 288,
      "Ġl": 289,
      "Ġp": 290,
      "Ġto": 291,
      "âĢ": 292,
      "ĠI": 293,
      "it": 294,
      "Ġy": 295,
      "ing": 296,
      "âĢĻ": 297,
      "Ġin": 298,
      "om": 299,
      "st": 300,
      "Ġbe": 301,
      "Ġwi": 302,
      "Ġg": 303,
      "ve": 304,
      "Ġyou": 305,
      "Ġsh": 306,
      "Ġhe": 307,
      "Ġu": 308,
      "Ġha": 309,
      "Ġno": 310,
      "se": 311,
      "Th": 312,
      "ĠA": 313,
      "ow": 314,
      "ay": 315,
      "le": 316,
      "ch": 317,
      "Ġthat": 318,
      "im": 319,
      "ld": 320,
      "Ġwh": 321,
      "all": 322,
      "ce": 323,
      "gh": 324,
      "nt": 325,
      "ir": 326,
      "id": 327,
      "Ġfor": 328,
      "Ġe": 329,
      "Ġmy": 330,
      "as": 331,
      "ut": 332,
      "et": 333,
      "Ġis": 334,
      "Ġhis": 335,
      "Ġme": 336,
      "Ġnot": 337,
      "Ġwith": 338,
      "am": 339,
      "od": 340,
      "ere": 341,
      "ke": 342,
      "al": 343,
      "Ġit": 344,
      "ent": 345,
      "ĠAnd": 346,
      "ad": 347,
      "ght": 348,
      "Ġhim": 349,
      "ri": 350,
      "Ġshall": 351,
      "ra": 352,
      "ther": 353,
      "ĠL": 354,
      "ver": 355,
      "Ġthou": 356,
      "our": 357,
      "ĠĠ": 358,
      "ro": 359,
      "and": 360,
      "Ġk": 361,
      "Wh": 362,
      "ore": 363,
      "el": 364,
      "Ġst": 365,
      "Ġre": 366,
      "ord": 367,
      "ea": 368,
      "ain": 369,
      "ĠTh": 370,
      "Ġon": 371,
      "OR": 372,
      "us": 373,
      "nto": 374,
      "ĠS": 375,
      "Ġhave": 376,
      "Ġas": 377,
      "ur": 378,
      "est": 379,
      "Ġall": 380,
      "ion": 381,
      "ome": 382,
      "Ġyour": 383,
      "il": 384,
      "Ġunto": 385,
      "Ġthey": 386,
      "Ġthy": 387,
      "Ġwill": 388,
      "Ġthem": 389,
      "Ġsa": 390,
      "ĠG": 391,
      "Ġli": 392,
      "Ġthis": 393,
      "And": 394,
      "Ġdo": 395,
      "ess": 396,
      "Ġan": 397,
      "Ġgo": 398,
      "Ġup": 399,
      "Ġwe": 400,
      "ĠB": 401,
      "ly": 402,
      "ORD": 403,
      "ck": 404,
      "Ġse": 405,
      "ich": 406,
      "Ġso": 407,
      "ĠJ": 408,
      "Ġthee": 409,
      "rom": 410,
      "ĠH": 411,
      "ould": 412,
      "Ġher": 413,
      "ear": 414,
      "out": 415,
      "ake": 416,
      "Ġwas": 417,
      "Ġfa": 418,
      "ĠLORD": 419,
      "ter": 420,
      "Ġlo": 421,
      "Ġch": 422,
      "ven": 423,
      "ĠM": 424,
      "Ġman": 425,
      "Ġsp": 426,
      "ge": 427,
      "ame": 428,
      "Ġbut": 429,
      "ru": 430,
      "ard": 431,
      "Ġare": 432,
      "Ġthere": 433,
      "ĠC": 434,
      "ill": 435,
      "Ġtheir": 436,
      "Ġfrom": 437,
      "ine": 438,
      "ast": 439,
      "ĠE": 440,
      "ight": 441,
      "Ġby": 442,
      "au": 443,
      "the": 444,
      "if": 445,
      "ot": 446,
      "ant": 447,
      "ĠP": 448,
      "ers": 449,
      "Ġsu": 450,
      "fore": 451,
      "Ġv": 452,
      "Ġwhich": 453,
      "EN": 454,
      "Ġde": 455,
      "ell": 456,
      "Ġkn": 457,
      "ie": 458,
      "one": 459,
      "art": 460,
      "ong": 461,
      "ct": 462,
      "sel": 463,
      "ĠF": 464,
      "ol": 465,
      "AN": 466,
      "The": 467,
      "em": 468,
      "Ġam": 469,
      "ith": 470,
      "Ġat": 471,
      "Ġne": 472,
      "US": 473,
      "ER": 474,
      "op": 475,
      "Ġsaid": 476,
      "ive": 477,
      "[_": 478,
      "AR": 479,
      "Ġcom": 480,
      "ah": 481,
      "ous": 482,
      "Ġsay": 483,
      "Ġout": 484,
      "To": 485,
      "Ġshe": 486,
      "ĠGod": 487,
      "ab": 488,
      "Ġour": 489,
      "Ġupon": 490,
      "ĠO": 491,
      "IN": 492,
      "ok": 493,
      "Ġwere": 494,
      "Ġson": 495,
      "res": 496,
      "gain": 497,
      "ĠD": 498,
      "rou": 499,
      "fe": 500,
      "Ġking": 501,
      "ind": 502,
      "qu": 503,
      "._": 504,
      "Ġwhen": 505,
      "Ġhath": 506,
      "own": 507,
      "Ġcon": 508,
      "to": 509,
      "ep": 510,
      "ul": 511,
      "os": 512,
      "old": 513,
      "ish": 514,
      "ĠThe": 515,
      "Ġcome": 516,
      "Ġye": 517,
      "Ġal": 518,
      "ren": 519,
      "ĠĠĠĠ": 520,
      "._]": 521,
      "pt": 522,
      "Ġday": 523,
      "ood": 524,
      "ES": 525,
      "eth": 526,
      "Ġone": 527,
      "Ġbl": 528,
      "Ġhad": 529,
      "ry": 530,
      "ose": 531,
      "Ġagain": 532,
      "Ġgood": 533,
      "Ġor": 534,
      "ĠWh": 535,
      "Ġus": 536,
      "ation": 537,
      "Ġhand": 538,
      "ost": 539,
      "Ġpl": 540,
      "ON": 541,
      "Ġwor": 542,
      "Ġar": 543,
      "of": 544,
      "ust": 545,
      "Ġsw": 546,
      "That": 547,
      "Ġwhat": 548,
      "ity": 549,
      "pp": 550,
      "ĠIs": 551,
      "end": 552,
      "Ġknow": 553,
      "ild": 554,
      "ĠR": 555,
      "ves": 556,
      "ĠN": 557,
      "ate": 558,
      "self": 559,
      "ness": 560,
      "Ġj": 561,
      "Ġif": 562,
      "ic": 563,
      "very": 564,
      "ouse": 565,
      "Ġlet": 566,
      "Ġoff": 567,
      "Ġlord": 568,
      "reat": 569,
      "are": 570,
      "Ġmore": 571,
      "Ġmad": 572,
      "ud": 573,
      "ass": 574,
      "um": 575,
      "ST": 576,
      "ings": 577,
      "ak": 578,
      "ure": 579,
      "Ġpr": 580,
      "ies": 581,
      "Ġnow": 582,
      "ĠT": 583,
      "ph": 584,
      "Ġdid": 585,
      "ice": 586,
      "Ġwould": 587,
      "urn": 588,
      "Ġab": 589,
      "Ġthen": 590,
      "Ġmake": 591,
      "Ġmay": 592,
      "rael": 593,
      "Ġlove": 594,
      "Ġpro": 595,
      "Ġsee": 596,
      "Ġcan": 597,
      "Ġthan": 598,
      "Ġhouse": 599,
      "ide": 600,
      "nter": 601,
      "ise": 602,
      "âĢĶ": 603,
      "ath": 604,
      "ink": 605,
      "ance": 606,
      "ig": 607,
      "Ġmen": 608,
      "sh": 609,
      "ence": 610,
      "alt": 611,
      "Ġlike": 612,
      "Ġfather": 613,
      "oth": 614,
      "Ġshould": 615,
      "eop": 616,
      "ire": 617,
      "Ġinto": 618,
      "Ġtw": 619,
      "ue": 620,
      "orn": 621,
      "ist": 622,
      "eople": 623,
      "ĠIsrael": 624,
      "ort": 625,
      "AL": 626,
      "un": 627,
      "Ġfo": 628,
      "Ġaf": 629,
      "ave": 630,
      "10": 631,
      "Ġcame": 632,
      "OL": 633,
      "Ġbre": 634,
      "11": 635,
      "erv": 636,
      "eak": 637,
      "ound": 638,
      "But": 639,
      "Ġtru": 640,
      "ime": 641,
      "Ġbefore": 642,
      "Ġun": 643,
      "Ġheart": 644,
      "Ex": 645,
      "ĠK": 646,
      "ĠW": 647,
      "ĠâĢĻ": 648,
      "Ġchild": 649,
      "Ġear": 650,
      "ble": 651,
      "Ġpeople": 652,
      "ither": 653,
      "Ġfl": 654,
      "way": 655,
      "ment": 656,
      "ĠBut": 657,
      "so": 658,
      "ause": 659,
      "row": 660,
      "Ġmade": 661,
      "Ġgreat": 662,
      "Ġthese": 663,
      "ac": 664,
      "av": 665,
      "Ġword": 666,
      "Ġri": 667,
      "What": 668,
      "Ġsir": 669,
      "Ġhere": 670,
      "As": 671,
      "Ġwell": 672,
      "Ġey": 673,
      "Ġen": 674,
      "nder": 675,
      "IO": 676,
      "12": 677,
      "Ġr": 678,
      "other": 679,
      "ount": 680,
      "13": 681,
      "Ġland": 682,
      "14": 683,
      "LE": 684,
      "Ġagainst": 685,
      "For": 686,
      "You": 687,
      "ace": 688,
      "Ġgive": 689,
      "wn": 690,
      "be": 691,
      "Ġro": 692,
      "TH": 693,
      "uch": 694,
      "igh": 695,
      "Ġcomm": 696,
      "Ġhast": 697,
      "red": 698,
      "Ġshalt": 699,
      "ĠFor": 700,
      "Ġbr": 701,
      "Ġqu": 702,
      "ber": 703,
      "ag": 704,
      "Ġex": 705,
      "Ġtake": 706,
      "Ġwhere": 707,
      "Ġdis": 708,
      "Ġyet": 709,
      "ING": 710,
      "ree": 711,
      "he": 712,
      "hold": 713,
      "15": 714,
      "Ġmine": 715,
      "CH": 716,
      "Ġdown": 717,
      "Ġchildren": 718,
      "ĠHe": 719,
      "ward": 720,
      "itt": 721,
      "ng": 722,
      "Ġspeak": 723,
      "EL": 724,
      "RO": 725,
      "ip": 726,
      "lem": 727,
      "Ġany": 728,
      "ite": 729,
      "Ġmust": 730,
      "Ġtime": 731,
      "16": 732,
      "ans": 733,
      "Ġhear": 734,
      "ved": 735,
      "aught": 736,
      "Ġserv": 737,
      "ick": 738,
      "IA": 739,
      "Ġbro": 740,
      "ang": 741,
      "My": 742,
      "Ġsuch": 743,
      "ign": 744,
      "Ġcall": 745,
      "Ġevery": 746,
      "Ġwho": 747,
      "ĠLord": 748,
      "Ġsome": 749,
      "Ġco": 750,
      "Ġeven": 751,
      "Ġdes": 752,
      "Ġaway": 753,
      "Ġnor": 754,
      "ach": 755,
      "cc": 756,
      "ull": 757,
      "Ġname": 758,
      "ĠThen": 759,
      "Ġway": 760,
      "aven": 761,
      "18": 762,
      "ress": 763,
      "eath": 764,
      "Ġra": 765,
      "Ġ[_": 766,
      "Ġla": 767,
      "IR": 768,
      "Ġover": 769,
      "Ġhon": 770,
      "Ġpass": 771,
      "ile": 772,
      "eet": 773,
      "KING": 774,
      "Ġhow": 775,
      "ap": 776,
      "oul": 777,
      "Ġalso": 778,
      "ful": 779,
      "Ġtwo": 780,
      "Ġpo": 781,
      "Ġle": 782,
      "19": 783,
      "He": 784,
      "IUS": 785,
      "ĠĠĠ": 786,
      "Ġpri": 787,
      "LO": 788,
      "17": 789,
      "Ġafter": 790,
      "iah": 791,
      "Ġwent": 792,
      "20": 793,
      "Ġother": 794,
      "Ġheaven": 795,
      "Ġbo": 796,
      "not": 797,
      "unt": 798,
      "age": 799,
      "Ġput": 800,
      "sw": 801,
      "Ġart": 802,
      "22": 803,
      "ft": 804,
      "21": 805,
      "Ġown": 806,
      "ĠBe": 807,
      "Ġgra": 808,
      "Ġbet": 809,
      "ff": 810,
      "les": 811,
      "Ġmight": 812,
      "Ġbec": 813,
      "Ġper": 814,
      "ears": 815,
      "li": 816,
      "Ġblood": 817,
      "Ġsin": 818,
      "Ġtoo": 819,
      "Ġoffer": 820,
      "Ġlife": 821,
      "If": 822,
      "Ġcl": 823,
      "Ġke": 824,
      "Ġthine": 825,
      "ack": 826,
      "ĠKing": 827,
      "Ġsc": 828,
      "Ġpart": 829,
      "Ġmuch": 830,
      "ady": 831,
      "ase": 832,
      "Ġeyes": 833,
      "ark": 834,
      "ew": 835,
      "Ġlook": 836,
      "Ġstr": 837,
      "irst": 838,
      "Ġsaying": 839,
      "With": 840,
      "23": 841,
      "for": 842,
      "Ġdeath": 843,
      "Ġfri": 844,
      "io": 845,
      "rought": 846,
      "Ġlea": 847,
      "Ġforth": 848,
      "Ġearth": 849,
      "Enter": 850,
      "âĢľ": 851,
      "Ġpre": 852,
      "Ġdone": 853,
      "ee": 854,
      "aster": 855,
      "wh": 856,
      "Ġthink": 857,
      "Ġwom": 858,
      "Ġsons": 859,
      "Ġsl": 860,
      "Ġset": 861,
      "een": 862,
      "ty": 863,
      "In": 864,
      "thing": 865,
      "Ġtell": 866,
      "ants": 867,
      "Ġthings": 868,
      "Ġbeg": 869,
      "Ġpray": 870,
      "vil": 871,
      "ied": 872,
      "Ġrem": 873,
      "24": 874,
      "Ġgl": 875,
      "ANT": 876,
      "Ġbring": 877,
      "ARD": 878,
      "Ġsaith": 879,
      "Ġright": 880,
      "ces": 881,
      "Ġmost": 882,
      "AM": 883,
      "ci": 884,
      "Ġacc": 885,
      "ock": 886,
      "Ġever": 887,
      "Ġfriend": 888,
      "led": 889,
      "per": 890,
      "ia": 891,
      "Ġfear": 892,
      "Ġapp": 893,
      "Ġwat": 894,
      "Ġsm": 895,
      "Ġdoth": 896,
      "Ġwar": 897,
      "Ġplace": 898,
      "Ġhead": 899,
      "erefore": 900,
      "Ġnight": 901,
      "Ġwr": 902,
      "IC": 903,
      "Ġru": 904,
      "Ġnever": 905,
      "eunt": 906,
      "Ġple": 907,
      "Is": 908,
      "ĠWhat": 909,
      "Ġsoul": 910,
      "ites": 911,
      "ĠY": 912,
      "Thou": 913,
      "ENE": 914,
      "ĠEnter": 915,
      "ub": 916,
      "ESS": 917,
      "swer": 918,
      "âĢĿ": 919,
      "avid": 920,
      "IL": 921,
      "Be": 922,
      "und": 923,
      "ne": 924,
      "25": 925,
      "Why": 926,
      "Ġad": 927,
      "Exeunt": 928,
      "ction": 929,
      "Ġunder": 930,
      "Ġho": 931,
      "well": 932,
      "ĠĠĠĠĠĠĠĠ": 933,
      "Of": 934,
      "Ġdaught": 935,
      "Ġfair": 936,
      "ather": 937,
      "Ġmany": 938,
      "ield": 939,
      "26": 940,
      "eed": 941,
      "How": 942,
      "No": 943,
      "Ġanswer": 944,
      "Ġcommand": 945,
      "rough": 946,
      "Exit": 947,
      "Ġvery": 948,
      "Ġend": 949,
      "Ġbeen": 950,
      "dom": 951,
      "Ġbrought": 952,
      "Ġtherefore": 953,
      "AT": 954,
      "ĠV": 955,
      "This": 956,
      "ving": 957,
      "Ġfirst": 958,
      "Ġbrother": 959,
      "Ġold": 960,
      "ert": 961,
      "Ġstand": 962,
      "ĠDavid": 963,
      "ove": 964,
      "Ġdays": 965,
      "cen": 966,
      "Ġwhom": 967,
      "Ġdel": 968,
      "ower": 969,
      "eace": 970,
      "So": 971,
      "orrow": 972,
      "iver": 973,
      "Ġgent": 974,
      "Ġcomp": 975,
      "Which": 976,
      "Ġim": 977,
      "selves": 978,
      "Ġkeep": 979,
      "ond": 980,
      "oh": 981,
      "Ġeat": 982,
      "Ġsent": 983,
      "ried": 984,
      "Ġturn": 985,
      "ĠIf": 986,
      "ĠSh": 987,
      "Ġarm": 988,
      "UC": 989,
      "Ġpres": 990,
      "Ġworld": 991,
      "Ġmer": 992,
      "llow": 993,
      "alk": 994,
      "atter": 995,
      "Ġsweet": 996,
      "27": 997,
      "ius": 998,
      "oice": 999,
      "Ġbear": 1000,
      "LA": 1001,
      "Ġcont": 1002,
      "ET": 1003,
      "Ġbu": 1004,
      "Ġcity": 1005,
      "Ġrep": 1006,
      "aid": 1007,
      "less": 1008,
      "its": 1009,
      "ince": 1010,
      "oses": 1011,
      "Ġwords": 1012,
      "Ġabout": 1013,
      "ors": 1014,
      "Ġheard": 1015,
      "Ġdead": 1016,
      "Ġbecause": 1017,
      "Ġthus": 1018,
      "int": 1019,
      "Ġcannot": 1020,
      "Ġpriest": 1021,
      "ĠJer": 1022,
      "Ġmar": 1023
    },
    "merges": [
      [
        "t",
        "h"
      ],
      [
        "Ġ",
        "th"
      ],
      [
        "Ġ",
        "a"
      ],
      [
        "Ġth",
        "e"
      ],
      [
        "n",
        "d"
      ],
      [
        "Ġ",
        "s"
      ],
      [
        "Ġ",
        "h"
      ],
      [
        "e",
        "r"
      ],
      [
        "i",
        "n"
      ],
      [
        "o",
        "u"
      ],
      [
        "Ġ",
        "w"
      ],
      [
        "Ġ",
        "o"
      ],
      [
        "Ġ",
        "m"
      ],
      [
        "r",
        "e"
      ],
      [
        "Ġ",
        "b"
      ],
      [
        "i",
        "s"
      ],
      [
        "Ġ",
        "t"
      ],
      [
        "l",
        "l"
      ],
      [
        "Ġa",
        "nd"
      ],
      [
        "Ġ",
        "f"
      ],
      [
        "Ġo",
        "f"
      ],
      [
        "e",
        "n"
      ],
      [
        "o",
        "r"
      ],
      [
        "a",
        "t"
      ],
      [
        "e",
        "s"
      ],
      [
        "o",
        "n"
      ],
      [
        "Ġ",
        "c"
      ],
      [
        "Ġ",
        "d"
      ],
      [
        "a",
        "r"
      ],
      [
        "e",
        "d"
      ],
      [
        "Ġ",
        "n"
      ],
      [
        "a",
        "n"
      ],
      [
        "Ġ",
        "l"
      ],
      [
        "Ġ",
        "p"
      ],
      [
        "Ġt",
        "o"
      ],
      [
        "â",
        "Ģ"
      ],
      [
        "Ġ",
        "I"
      ],
      [
        "i",
        "t"
      ],
      [
        "Ġ",
        "y"
      ],
      [
        "in",
        "g"
      ],
      [
        "âĢ",
        "Ļ"
      ],
      [
        "Ġ",
        "in"
      ],
      [
        "o",
        "m"
      ],
      [
        "s",
        "t"
      ],
      [
        "Ġb",
        "e"
      ],
      [
        "Ġw",
        "i"
      ],
      [
        "Ġ",
        "g"
      ],
      [
        "v",
        "e"
      ],
      [
        "Ġy",
        "ou"
      ],
      [
        "Ġs",
        "h"
      ],
      [
        "Ġh",
        "e"
      ],
      [
        "Ġ",
        "u"
      ],
      [
        "Ġh",
        "a"
      ],
      [
        "Ġn",
        "o"
      ],
      [
        "s",
        "e"
      ],
      [
        "T",
        "h"
      ],
      [
        "Ġ",
        "A"
      ],
      [
        "o",
        "w"
      ],
      [
        "a",
        "y"
      ],
      [
        "l",
        "e"
      ],
      [
        "c",
        "h"
      ],
      [
        "Ġth",
        "at"
      ],
      [
        "i",
        "m"
      ],
      [
        "l",
        "d"
      ],
      [
        "Ġw",
        "h"
      ],
      [
        "a",
        "ll"
      ],
      [
        "c",
        "e"
      ],
      [
        "g",
        "h"
      ],
      [
        "n",
        "t"
      ],
      [
        "i",
        "r"
      ],
      [
        "i",
        "d"
      ],
      [
        "Ġf",
        "or"
      ],
      [
        "Ġ",
        "e"
      ],
      [
        "Ġm",
        "y"
      ],
      [
        "a",
        "s"
      ],
      [
        "u",
        "t"
      ],
      [
        "e",
        "t"
      ],
      [
        "Ġ",
        "is"
      ],
      [
        "Ġh",
        "is"
      ],
      [
        "Ġm",
        "e"
      ],
      [
        "Ġno",
        "t"
      ],
      [
        "Ġwi",
        "th"
      ],
      [
        "a",
        "m"
      ],
      [
        "o",
        "d"
      ],
      [
        "er",
        "e"
      ],
      [
        "k",
        "e"
      ],
      [
        "a",
        "l"
      ],
      [
        "Ġ",
        "it"
      ],
      [
        "en",
        "t"
      ],
      [
        "ĠA",
        "nd"
      ],
      [
        "a",
        "d"
      ],
      [
        "gh",
        "t"
      ],
      [
        "Ġh",
        "im"
      ],
      [
        "r",
        "i"
      ],
      [
        "Ġsh",
        "all"
      ],
      [
        "r",
        "a"
      ],
      [
        "th",
        "er"
      ],
      [
        "Ġ",
        "L"
      ],
      [
        "v",
        "er"
      ],
      [
        "Ġth",
        "ou"
      ],
      [
        "ou",
        "r"
      ],
      [
        "Ġ",
        "Ġ"
      ],
      [
        "r",
        "o"
      ],
      [
        "a",
        "nd"
      ],
      [
        "Ġ",
        "k"
      ],
      [
        "W",
        "h"
      ],
      [
        "o",
        "re"
      ],
      [
        "e",
        "l"
      ],
      [
        "Ġs",
        "t"
      ],
      [
        "Ġ",
        "re"
      ],
      [
        "or",
        "d"
      ],
      [
        "e",
        "a"
      ],
      [
        "a",
        "in"
      ],
      [
        "Ġ",
        "Th"
      ],
      [
        "Ġo",
        "n"
      ],
      [
        "O",
        "R"
      ],
      [
        "u",
        "s"
      ],
      [
        "nt",
        "o"
      ],
      [
        "Ġ",
        "S"
      ],
      [
        "Ġha",
        "ve"
      ],
      [
        "Ġa",
        "s"
      ],
      [
        "u",
        "r"
      ],
      [
        "es",
        "t"
      ],
      [
        "Ġa",
        "ll"
      ],
      [
        "i",
        "on"
      ],
      [
        "om",
        "e"
      ],
      [
        "Ġyou",
        "r"
      ],
      [
        "i",
        "l"
      ],
      [
        "Ġu",
        "nto"
      ],
      [
        "Ġthe",
        "y"
      ],
      [
        "Ġth",
        "y"
      ],
      [
        "Ġwi",
        "ll"
      ],
      [
        "Ġthe",
        "m"
      ],
      [
        "Ġs",
        "a"
      ],
      [
        "Ġ",
        "G"
      ],
      [
        "Ġl",
        "i"
      ],
      [
        "Ġth",
        "is"
      ],
      [
        "A",
        "nd"
      ],
      [
        "Ġd",
        "o"
      ],
      [
        "es",
        "s"
      ],
      [
        "Ġa",
        "n"
      ],
      [
        "Ġg",
        "o"
      ],
      [
        "Ġu",
        "p"
      ],
      [
        "Ġw",
        "e"
      ],
      [
        "Ġ",
        "B"
      ],
      [
        "l",
        "y"
      ],
      [
        "OR",
        "D"
      ],
      [
        "c",
        "k"
      ],
      [
        "Ġs",
        "e"
      ],
      [
        "i",
        "ch"
      ],
      [
        "Ġs",
        "o"
      ],
      [
        "Ġ",
        "J"
      ],
      [
        "Ġthe",
        "e"
      ],
      [
        "r",
        "om"
      ],
      [
        "Ġ",
        "H"
      ],
      [
        "ou",
        "ld"
      ],
      [
        "Ġh",
        "er"
      ],
      [
        "e",
        "ar"
      ],
      [
        "ou",
        "t"
      ],
      [
        "a",
        "ke"
      ],
      [
        "Ġw",
        "as"
      ],
      [
        "Ġf",
        "a"
      ],
      [
        "ĠL",
        "ORD"
      ],
      [
        "t",
        "er"
      ],
      [
        "Ġl",
        "o"
      ],
      [
        "Ġc",
        "h"
      ],
      [
        "v",
        "en"
      ],
      [
        "Ġ",
        "M"
      ],
      [
        "Ġm",
        "an"
      ],
      [
        "Ġs",
        "p"
      ],
      [
        "g",
        "e"
      ],
      [
        "am",
        "e"
      ],
      [
        "Ġb",
        "ut"
      ],
      [
        "r",
        "u"
      ],
      [
        "ar",
        "d"
      ],
      [
        "Ġa",
        "re"
      ],
      [
        "Ġthe",
        "re"
      ],
      [
        "Ġ",
        "C"
      ],
      [
        "i",
        "ll"
      ],
      [
        "Ġthe",
        "ir"
      ],
      [
        "Ġf",
        "rom"
      ],
      [
        "in",
        "e"
      ],
      [
        "a",
        "st"
      ],
      [
        "Ġ",
        "E"
      ],
      [
        "i",
        "ght"
      ],
      [
        "Ġb",
        "y"
      ],
      [
        "a",
        "u"
      ],
      [
        "th",
        "e"
      ],
      [
        "i",
        "f"
      ],
      [
        "o",
        "t"
      ],
      [
        "an",
        "t"
      ],
      [
        "Ġ",
        "P"
      ],
      [
        "er",
        "s"
      ],
      [
        "Ġs",
        "u"
      ],
      [
        "f",
        "ore"
      ],
      [
        "Ġ",
        "v"
      ],
      [
        "Ġwh",
        "ich"
      ],
      [
        "E",
        "N"
      ],
      [
        "Ġd",
        "e"
      ],
      [
        "e",
        "ll"
      ],
      [
        "Ġk",
        "n"
      ],
      [
        "i",
        "e"
      ],
      [
        "on",
        "e"
      ],
      [
        "ar",
        "t"
      ],
      [
        "on",
        "g"
      ],
      [
        "c",
        "t"
      ],
      [
        "se",
        "l"
      ],
      [
        "Ġ",
        "F"
      ],
      [
        "o",
        "l"
      ],
      [
        "A",
        "N"
      ],
      [
        "Th",
        "e"
      ],
      [
        "e",
        "m"
      ],
      [
        "Ġa",
        "m"
      ],
      [
        "i",
        "th"
      ],
      [
        "Ġa",
        "t"
      ],
      [
        "Ġn",
        "e"
      ],
      [
        "U",
        "S"
      ],
      [
        "E",
        "R"
      ],
      [
        "o",
        "p"
      ],
      [
        "Ġsa",
        "id"
      ],
      [
        "i",
        "ve"
      ],
      [
        "[",
        "_"
      ],
      [
        "A",
        "R"
      ],
      [
        "Ġc",
        "om"
      ],
      [
        "a",
        "h"
      ],
      [
        "ou",
        "s"
      ],
      [
        "Ġs",
        "ay"
      ],
      [
        "Ġ",
        "out"
      ],
      [
        "T",
        "o"
      ],
      [
        "Ġsh",
        "e"
      ],
      [
        "ĠG",
        "od"
      ],
      [
        "a",
        "b"
      ],
      [
        "Ġ",
        "our"
      ],
      [
        "Ġup",
        "on"
      ],
      [
        "Ġ",
        "O"
      ],
      [
        "I",
        "N"
      ],
      [
        "o",
        "k"
      ],
      [
        "Ġw",
        "ere"
      ],
      [
        "Ġs",
        "on"
      ],
      [
        "re",
        "s"
      ],
      [
        "g",
        "ain"
      ],
      [
        "Ġ",
        "D"
      ],
      [
        "r",
        "ou"
      ],
      [
        "f",
        "e"
      ],
      [
        "Ġk",
        "ing"
      ],
      [
        "i",
        "nd"
      ],
      [
        "q",
        "u"
      ],
      [
        ".",
        "_"
      ],
      [
        "Ġwh",
        "en"
      ],
      [
        "Ġha",
        "th"
      ],
      [
        "ow",
        "n"
      ],
      [
        "Ġc",
        "on"
      ],
      [
        "t",
        "o"
      ],
      [
        "e",
        "p"
      ],
      [
        "u",
        "l"
      ],
      [
        "o",
        "s"
      ],
      [
        "o",
        "ld"
      ],
      [
        "is",
        "h"
      ],
      [
        "ĠTh",
        "e"
      ],
      [
        "Ġc",
        "ome"
      ],
      [
        "Ġy",
        "e"
      ],
      [
        "Ġa",
        "l"
      ],
      [
        "re",
        "n"
      ],
      [
        "ĠĠ",
        "ĠĠ"
      ],
      [
        "._",
        "]"
      ],
      [
        "p",
        "t"
      ],
      [
        "Ġd",
        "ay"
      ],
      [
        "o",
        "od"
      ],
      [
        "E",
        "S"
      ],
      [
        "e",
        "th"
      ],
      [
        "Ġon",
        "e"
      ],
      [
        "Ġb",
        "l"
      ],
      [
        "Ġha",
        "d"
      ],
      [
        "r",
        "y"
      ],
      [
        "o",
        "se"
      ],
      [
        "Ġa",
        "gain"
      ],
      [
        "Ġgo",
        "od"
      ],
      [
        "Ġo",
        "r"
      ],
      [
        "Ġ",
        "Wh"
      ],
      [
        "Ġu",
        "s"
      ],
      [
        "at",
        "ion"
      ],
      [
        "Ġha",
        "nd"
      ],
      [
        "o",
        "st"
      ],
      [
        "Ġp",
        "l"
      ],
      [
        "O",
        "N"
      ],
      [
        "Ġw",
        "or"
      ],
      [
        "Ġa",
        "r"
      ],
      [
        "o",
        "f"
      ],
      [
        "u",
        "st"
      ],
      [
        "Ġs",
        "w"
      ],
      [
        "Th",
        "at"
      ],
      [
        "Ġwh",
        "at"
      ],
      [
        "it",
        "y"
      ],
      [
        "p",
        "p"
      ],
      [
        "ĠI",
        "s"
      ],
      [
        "e",
        "nd"
      ],
      [
        "Ġkn",
        "ow"
      ],
      [
        "i",
        "ld"
      ],
      [
        "Ġ",
        "R"
      ],
      [
        "v",
        "es"
      ],
      [
        "Ġ",
        "N"
      ],
      [
        "at",
        "e"
      ],
      [
        "sel",
        "f"
      ],
      [
        "n",
        "ess"
      ],
      [
        "Ġ",
        "j"
      ],
      [
        "Ġ",
        "if"
      ],
      [
        "i",
        "c"
      ],
      [
        "ver",
        "y"
      ],
      [
        "ou",
        "se"
      ],
      [
        "Ġl",
        "et"
      ],
      [
        "Ġof",
        "f"
      ],
      [
        "Ġl",
        "ord"
      ],
      [
        "re",
        "at"
      ],
      [
        "a",
        "re"
      ],
      [
        "Ġm",
        "ore"
      ],
      [
        "Ġm",
        "ad"
      ],
      [
        "u",
        "d"
      ],
      [
        "as",
        "s"
      ],
      [
        "u",
        "m"
      ],
      [
        "S",
        "T"
      ],
      [
        "ing",
        "s"
      ],
      [
        "a",
        "k"
      ],
      [
        "u",
        "re"
      ],
      [
        "Ġp",
        "r"
      ],
      [
        "i",
        "es"
      ],
      [
        "Ġno",
        "w"
      ],
      [
        "Ġ",
        "T"
      ],
      [
        "p",
        "h"
      ],
      [
        "Ġd",
        "id"
      ],
      [
        "i",
        "ce"
      ],
      [
        "Ġw",
        "ould"
      ],
      [
        "ur",
        "n"
      ],
      [
        "Ġa",
        "b"
      ],
      [
        "Ġthe",
        "n"
      ],
      [
        "Ġm",
        "ake"
      ],
      [
        "Ġm",
        "ay"
      ],
      [
        "ra",
        "el"
      ],
      [
        "Ġlo",
        "ve"
      ],
      [
        "Ġp",
        "ro"
      ],
      [
        "Ġse",
        "e"
      ],
      [
        "Ġc",
        "an"
      ],
      [
        "Ġth",
        "an"
      ],
      [
        "Ġh",
        "ouse"
      ],
      [
        "id",
        "e"
      ],
      [
        "nt",
        "er"
      ],
      [
        "is",
        "e"
      ],
      [
        "âĢ",
        "Ķ"
      ],
      [
        "a",
        "th"
      ],
      [
        "in",
        "k"
      ],
      [
        "an",
        "ce"
      ],
      [
        "i",
        "g"
      ],
      [
        "Ġm",
        "en"
      ],
      [
        "s",
        "h"
      ],
      [
        "en",
        "ce"
      ],
      [
        "al",
        "t"
      ],
      [
        "Ġli",
        "ke"
      ],
      [
        "Ġfa",
        "ther"
      ],
      [
        "o",
        "th"
      ],
      [
        "Ġsh",
        "ould"
      ],
      [
        "e",
        "op"
      ],
      [
        "i",
        "re"
      ],
      [
        "Ġin",
        "to"
      ],
      [
        "Ġt",
        "w"
      ],
      [
        "u",
        "e"
      ],
      [
        "or",
        "n"
      ],
      [
        "is",
        "t"
      ],
      [
        "eop",
        "le"
      ],
      [
        "ĠIs",
        "rael"
      ],
      [
        "or",
        "t"
      ],
      [
        "A",
        "L"
      ],
      [
        "u",
        "n"
      ],
      [
        "Ġf",
        "o"
      ],
      [
        "Ġa",
        "f"
      ],
      [
        "a",
        "ve"
      ],
      [
        "1",
        "0"
      ],
      [
        "Ġc",
        "ame"
      ],
      [
        "O",
        "L"
      ],
      [
        "Ġb",
        "re"
      ],
      [
        "1",
        "1"
      ],
      [
        "er",
        "v"
      ],
      [
        "ea",
        "k"
      ],
      [
        "ou",
        "nd"
      ],
      [
        "B",
        "ut"
      ],
      [
        "Ġt",
        "ru"
      ],
      [
        "im",
        "e"
      ],
      [
        "Ġbe",
        "fore"
      ],
      [
        "Ġu",
        "n"
      ],
      [
        "Ġhe",
        "art"
      ],
      [
        "E",
        "x"
      ],
      [
        "Ġ",
        "K"
      ],
      [
        "Ġ",
        "W"
      ],
      [
        "Ġ",
        "âĢĻ"
      ],
      [
        "Ġch",
        "ild"
      ],
      [
        "Ġe",
        "ar"
      ],
      [
        "b",
        "le"
      ],
      [
        "Ġp",
        "eople"
      ],
      [
        "i",
        "ther"
      ],
      [
        "Ġf",
        "l"
      ],
      [
        "w",
        "ay"
      ],
      [
        "m",
        "ent"
      ],
      [
        "ĠB",
        "ut"
      ],
      [
        "s",
        "o"
      ],
      [
        "au",
        "se"
      ],
      [
        "r",
        "ow"
      ],
      [
        "Ġmad",
        "e"
      ],
      [
        "Ġg",
        "reat"
      ],
      [
        "Ġthe",
        "se"
      ],
      [
        "a",
        "c"
      ],
      [
        "a",
        "v"
      ],
      [
        "Ġw",
        "ord"
      ],
      [
        "Ġ",
        "ri"
      ],
      [
        "Wh",
        "at"
      ],
      [
        "Ġs",
        "ir"
      ],
      [
        "Ġh",
        "ere"
      ],
      [
        "A",
        "s"
      ],
      [
        "Ġwe",
        "ll"
      ],
      [
        "Ġe",
        "y"
      ],
      [
        "Ġ",
        "en"
      ],
      [
        "nd",
        "er"
      ],
      [
        "I",
        "O"
      ],
      [
        "1",
        "2"
      ],
      [
        "Ġ",
        "r"
      ],
      [
        "o",
        "ther"
      ],
      [
        "ou",
        "nt"
      ],
      [
        "1",
        "3"
      ],
      [
        "Ġl",
        "and"
      ],
      [
        "1",
        "4"
      ],
      [
        "L",
        "E"
      ],
      [
        "Ġagain",
        "st"
      ],
      [
        "F",
        "or"
      ],
      [
        "Y",
        "ou"
      ],
      [
        "a",
        "ce"
      ],
      [
        "Ġg",
        "ive"
      ],
      [
        "w",
        "n"
      ],
      [
        "b",
        "e"
      ],
      [
        "Ġ",
        "ro"
      ],
      [
        "T",
        "H"
      ],
      [
        "u",
        "ch"
      ],
      [
        "i",
        "gh"
      ],
      [
        "Ġcom",
        "m"
      ],
      [
        "Ġha",
        "st"
      ],
      [
        "re",
        "d"
      ],
      [
        "Ġsh",
        "alt"
      ],
      [
        "ĠF",
        "or"
      ],
      [
        "Ġb",
        "r"
      ],
      [
        "Ġ",
        "qu"
      ],
      [
        "b",
        "er"
      ],
      [
        "a",
        "g"
      ],
      [
        "Ġe",
        "x"
      ],
      [
        "Ġt",
        "ake"
      ],
      [
        "Ġwh",
        "ere"
      ],
      [
        "Ġd",
        "is"
      ],
      [
        "Ġy",
        "et"
      ],
      [
        "IN",
        "G"
      ],
      [
        "re",
        "e"
      ],
      [
        "h",
        "e"
      ],
      [
        "h",
        "old"
      ],
      [
        "1",
        "5"
      ],
      [
        "Ġm",
        "ine"
      ],
      [
        "C",
        "H"
      ],
      [
        "Ġd",
        "own"
      ],
      [
        "Ġchild",
        "ren"
      ],
      [
        "ĠH",
        "e"
      ],
      [
        "w",
        "ard"
      ],
      [
        "it",
        "t"
      ],
      [
        "n",
        "g"
      ],
      [
        "Ġsp",
        "eak"
      ],
      [
        "E",
        "L"
      ],
      [
        "R",
        "O"
      ],
      [
        "i",
        "p"
      ],
      [
        "le",
        "m"
      ],
      [
        "Ġan",
        "y"
      ],
      [
        "it",
        "e"
      ],
      [
        "Ġm",
        "ust"
      ],
      [
        "Ġt",
        "ime"
      ],
      [
        "1",
        "6"
      ],
      [
        "an",
        "s"
      ],
      [
        "Ġhe",
        "ar"
      ],
      [
        "v",
        "ed"
      ],
      [
        "au",
        "ght"
      ],
      [
        "Ġs",
        "erv"
      ],
      [
        "i",
        "ck"
      ],
      [
        "I",
        "A"
      ],
      [
        "Ġb",
        "ro"
      ],
      [
        "an",
        "g"
      ],
      [
        "M",
        "y"
      ],
      [
        "Ġsu",
        "ch"
      ],
      [
        "ig",
        "n"
      ],
      [
        "Ġc",
        "all"
      ],
      [
        "Ġe",
        "very"
      ],
      [
        "Ġwh",
        "o"
      ],
      [
        "ĠL",
        "ord"
      ],
      [
        "Ġs",
        "ome"
      ],
      [
        "Ġc",
        "o"
      ],
      [
        "Ġe",
        "ven"
      ],
      [
        "Ġd",
        "es"
      ],
      [
        "Ġa",
        "way"
      ],
      [
        "Ġn",
        "or"
      ],
      [
        "a",
        "ch"
      ],
      [
        "c",
        "c"
      ],
      [
        "u",
        "ll"
      ],
      [
        "Ġn",
        "ame"
      ],
      [
        "ĠTh",
        "en"
      ],
      [
        "Ġw",
        "ay"
      ],
      [
        "a",
        "ven"
      ],
      [
        "1",
        "8"
      ],
      [
        "res",
        "s"
      ],
      [
        "ea",
        "th"
      ],
      [
        "Ġ",
        "ra"
      ],
      [
        "Ġ",
        "[_"
      ],
      [
        "Ġl",
        "a"
      ],
      [
        "I",
        "R"
      ],
      [
        "Ġo",
        "ver"
      ],
      [
        "Ġh",
        "on"
      ],
      [
        "Ġp",
        "ass"
      ],
      [
        "i",
        "le"
      ],
      [
        "e",
        "et"
      ],
      [
        "K",
        "ING"
      ],
      [
        "Ġh",
        "ow"
      ],
      [
        "a",
        "p"
      ],
      [
        "ou",
        "l"
      ],
      [
        "Ġal",
        "so"
      ],
      [
        "f",
        "ul"
      ],
      [
        "Ġtw",
        "o"
      ],
      [
        "Ġp",
        "o"
      ],
      [
        "Ġl",
        "e"
      ],
      [
        "1",
        "9"
      ],
      [
        "H",
        "e"
      ],
      [
        "I",
        "US"
      ],
      [
        "ĠĠ",
        "Ġ"
      ],
      [
        "Ġp",
        "ri"
      ],
      [
        "L",
        "O"
      ],
      [
        "1",
        "7"
      ],
      [
        "Ġaf",
        "ter"
      ],
      [
        "i",
        "ah"
      ],
      [
        "Ġw",
        "ent"
      ],
      [
        "2",
        "0"
      ],
      [
        "Ġo",
        "ther"
      ],
      [
        "Ġhe",
        "aven"
      ],
      [
        "Ġb",
        "o"
      ],
      [
        "n",
        "ot"
      ],
      [
        "u",
        "nt"
      ],
      [
        "a",
        "ge"
      ],
      [
        "Ġp",
        "ut"
      ],
      [
        "s",
        "w"
      ],
      [
        "Ġar",
        "t"
      ],
      [
        "2",
        "2"
      ],
      [
        "f",
        "t"
      ],
      [
        "2",
        "1"
      ],
      [
        "Ġo",
        "wn"
      ],
      [
        "ĠB",
        "e"
      ],
      [
        "Ġg",
        "ra"
      ],
      [
        "Ġbe",
        "t"
      ],
      [
        "f",
        "f"
      ],
      [
        "l",
        "es"
      ],
      [
        "Ġm",
        "ight"
      ],
      [
        "Ġbe",
        "c"
      ],
      [
        "Ġp",
        "er"
      ],
      [
        "ear",
        "s"
      ],
      [
        "l",
        "i"
      ],
      [
        "Ġbl",
        "ood"
      ],
      [
        "Ġs",
        "in"
      ],
      [
        "Ġto",
        "o"
      ],
      [
        "Ġoff",
        "er"
      ],
      [
        "Ġli",
        "fe"
      ],
      [
        "I",
        "f"
      ],
      [
        "Ġc",
        "l"
      ],
      [
        "Ġ",
        "ke"
      ],
      [
        "Ġth",
        "ine"
      ],
      [
        "a",
        "ck"
      ],
      [
        "ĠK",
        "ing"
      ],
      [
        "Ġs",
        "c"
      ],
      [
        "Ġp",
        "art"
      ],
      [
        "Ġm",
        "uch"
      ],
      [
        "ad",
        "y"
      ],
      [
        "a",
        "se"
      ],
      [
        "Ġey",
        "es"
      ],
      [
        "ar",
        "k"
      ],
      [
        "e",
        "w"
      ],
      [
        "Ġlo",
        "ok"
      ],
      [
        "Ġst",
        "r"
      ],
      [
        "ir",
        "st"
      ],
      [
        "Ġsay",
        "ing"
      ],
      [
        "W",
        "ith"
      ],
      [
        "2",
        "3"
      ],
      [
        "f",
        "or"
      ],
      [
        "Ġd",
        "eath"
      ],
      [
        "Ġf",
        "ri"
      ],
      [
        "i",
        "o"
      ],
      [
        "rou",
        "ght"
      ],
      [
        "Ġl",
        "ea"
      ],
      [
        "Ġfor",
        "th"
      ],
      [
        "Ġear",
        "th"
      ],
      [
        "E",
        "nter"
      ],
      [
        "âĢ",
        "ľ"
      ],
      [
        "Ġp",
        "re"
      ],
      [
        "Ġd",
        "one"
      ],
      [
        "e",
        "e"
      ],
      [
        "ast",
        "er"
      ],
      [
        "w",
        "h"
      ],
      [
        "Ġth",
        "ink"
      ],
      [
        "Ġw",
        "om"
      ],
      [
        "Ġson",
        "s"
      ],
      [
        "Ġs",
        "l"
      ],
      [
        "Ġs",
        "et"
      ],
      [
        "e",
        "en"
      ],
      [
        "t",
        "y"
      ],
      [
        "I",
        "n"
      ],
      [
        "th",
        "ing"
      ],
      [
        "Ġt",
        "ell"
      ],
      [
        "ant",
        "s"
      ],
      [
        "Ġth",
        "ings"
      ],
      [
        "Ġbe",
        "g"
      ],
      [
        "Ġpr",
        "ay"
      ],
      [
        "v",
        "il"
      ],
      [
        "i",
        "ed"
      ],
      [
        "Ġre",
        "m"
      ],
      [
        "2",
        "4"
      ],
      [
        "Ġg",
        "l"
      ],
      [
        "AN",
        "T"
      ],
      [
        "Ġbr",
        "ing"
      ],
      [
        "AR",
        "D"
      ],
      [
        "Ġsa",
        "ith"
      ],
      [
        "Ġri",
        "ght"
      ],
      [
        "c",
        "es"
      ],
      [
        "Ġm",
        "ost"
      ],
      [
        "A",
        "M"
      ],
      [
        "c",
        "i"
      ],
      [
        "Ġa",
        "cc"
      ],
      [
        "o",
        "ck"
      ],
      [
        "Ġe",
        "ver"
      ],
      [
        "Ġfri",
        "end"
      ],
      [
        "l",
        "ed"
      ],
      [
        "p",
        "er"
      ],
      [
        "i",
        "a"
      ],
      [
        "Ġf",
        "ear"
      ],
      [
        "Ġa",
        "pp"
      ],
      [
        "Ġw",
        "at"
      ],
      [
        "Ġs",
        "m"
      ],
      [
        "Ġdo",
        "th"
      ],
      [
        "Ġw",
        "ar"
      ],
      [
        "Ġpl",
        "ace"
      ],
      [
        "Ġhe",
        "ad"
      ],
      [
        "ere",
        "fore"
      ],
      [
        "Ġn",
        "ight"
      ],
      [
        "Ġw",
        "r"
      ],
      [
        "I",
        "C"
      ],
      [
        "Ġ",
        "ru"
      ],
      [
        "Ġne",
        "ver"
      ],
      [
        "e",
        "unt"
      ],
      [
        "Ġp",
        "le"
      ],
      [
        "I",
        "s"
      ],
      [
        "ĠWh",
        "at"
      ],
      [
        "Ġs",
        "oul"
      ],
      [
        "it",
        "es"
      ],
      [
        "Ġ",
        "Y"
      ],
      [
        "Th",
        "ou"
      ],
      [
        "EN",
        "E"
      ],
      [
        "ĠE",
        "nter"
      ],
      [
        "u",
        "b"
      ],
      [
        "ES",
        "S"
      ],
      [
        "sw",
        "er"
      ],
      [
        "âĢ",
        "Ŀ"
      ],
      [
        "av",
        "id"
      ],
      [
        "I",
        "L"
      ],
      [
        "B",
        "e"
      ],
      [
        "u",
        "nd"
      ],
      [
        "n",
        "e"
      ],
      [
        "2",
        "5"
      ],
      [
        "Wh",
        "y"
      ],
      [
        "Ġa",
        "d"
      ],
      [
        "Ex",
        "eunt"
      ],
      [
        "ct",
        "ion"
      ],
      [
        "Ġu",
        "nder"
      ],
      [
        "Ġh",
        "o"
      ],
      [
        "w",
        "ell"
      ],
      [
        "ĠĠĠĠ",
        "ĠĠĠĠ"
      ],
      [
        "O",
        "f"
      ],
      [
        "Ġd",
        "aught"
      ],
      [
        "Ġfa",
        "ir"
      ],
      [
        "a",
        "ther"
      ],
      [
        "Ġman",
        "y"
      ],
      [
        "ie",
        "ld"
      ],
      [
        "2",
        "6"
      ],
      [
        "e",
        "ed"
      ],
      [
        "H",
        "ow"
      ],
      [
        "N",
        "o"
      ],
      [
        "Ġan",
        "swer"
      ],
      [
        "Ġcomm",
        "and"
      ],
      [
        "rou",
        "gh"
      ],
      [
        "Ex",
        "it"
      ],
      [
        "Ġ",
        "very"
      ],
      [
        "Ġe",
        "nd"
      ],
      [
        "Ġbe",
        "en"
      ],
      [
        "d",
        "om"
      ],
      [
        "Ġb",
        "rought"
      ],
      [
        "Ġthere",
        "fore"
      ],
      [
        "A",
        "T"
      ],
      [
        "Ġ",
        "V"
      ],
      [
        "Th",
        "is"
      ],
      [
        "v",
        "ing"
      ],
      [
        "Ġf",
        "irst"
      ],
      [
        "Ġbro",
        "ther"
      ],
      [
        "Ġo",
        "ld"
      ],
      [
        "er",
        "t"
      ],
      [
        "Ġst",
        "and"
      ],
      [
        "ĠD",
        "avid"
      ],
      [
        "o",
        "ve"
      ],
      [
        "Ġday",
        "s"
      ],
      [
        "c",
        "en"
      ],
      [
        "Ġwh",
        "om"
      ],
      [
        "Ġd",
        "el"
      ],
      [
        "ow",
        "er"
      ],
      [
        "ea",
        "ce"
      ],
      [
        "S",
        "o"
      ],
      [
        "or",
        "row"
      ],
      [
        "i",
        "ver"
      ],
      [
        "Ġg",
        "ent"
      ],
      [
        "Ġcom",
        "p"
      ],
      [
        "Wh",
        "ich"
      ],
      [
        "Ġ",
        "im"
      ],
      [
        "sel",
        "ves"
      ],
      [
        "Ġke",
        "ep"
      ],
      [
        "o",
        "nd"
      ],
      [
        "o",
        "h"
      ],
      [
        "Ġe",
        "at"
      ],
      [
        "Ġs",
        "ent"
      ],
      [
        "ri",
        "ed"
      ],
      [
        "Ġt",
        "urn"
      ],
      [
        "ĠI",
        "f"
      ],
      [
        "ĠS",
        "h"
      ],
      [
        "Ġar",
        "m"
      ],
      [
        "U",
        "C"
      ],
      [
        "Ġp",
        "res"
      ],
      [
        "Ġwor",
        "ld"
      ],
      [
        "Ġm",
        "er"
      ],
      [
        "ll",
        "ow"
      ],
      [
        "al",
        "k"
      ],
      [
        "at",
        "ter"
      ],
      [
        "Ġsw",
        "eet"
      ],
      [
        "2",
        "7"
      ],
      [
        "i",
        "us"
      ],
      [
        "o",
        "ice"
      ],
      [
        "Ġbe",
        "ar"
      ],
      [
        "L",
        "A"
      ],
      [
        "Ġcon",
        "t"
      ],
      [
        "E",
        "T"
      ],
      [
        "Ġb",
        "u"
      ],
      [
        "Ġc",
        "ity"
      ],
      [
        "Ġre",
        "p"
      ],
      [
        "a",
        "id"
      ],
      [
        "l",
        "ess"
      ],
      [
        "it",
        "s"
      ],
      [
        "in",
        "ce"
      ],
      [
        "os",
        "es"
      ],
      [
        "Ġword",
        "s"
      ],
      [
        "Ġab",
        "out"
      ],
      [
        "or",
        "s"
      ],
      [
        "Ġhe",
        "ard"
      ],
      [
        "Ġde",
        "ad"
      ],
      [
        "Ġbec",
        "ause"
      ],
      [
        "Ġth",
        "us"
      ],
      [
        "in",
        "t"
      ],
      [
        "Ġcan",
        "not"
      ],
      [
        "Ġpri",
        "est"
      ],
      [
        "ĠJ",
        "er"
      ],
      [
        "Ġm",
        "ar"
      ]
    ]
  }
}